{
  "version": "1.0",
  "truncation": null,
  "padding": null,
  "added_tokens": [
    {
      "id": 0,
      "content": "<longcat_unk>",
      "single_word": false,
      "lstrip": false,
      "rstrip": false,
      "normalized": false,
      "special": true
    },
    {
      "id": 1,
      "content": "<longcat_s>",
      "single_word": false,
      "lstrip": false,
      "rstrip": false,
      "normalized": false,
      "special": true
    },
    {
      "id": 2,
      "content": "</longcat_s>",
      "single_word": false,
      "lstrip": false,
      "rstrip": false,
      "normalized": false,
      "special": true
    },
    {
      "id": 3,
      "content": "<longcat_pad>",
      "single_word": false,
      "lstrip": false,
      "rstrip": false,
      "normalized": false,
      "special": true
    },
    {
      "id": 4,
      "content": "<shift_unk>",
      "single_word": false,
      "lstrip": false,
      "rstrip": false,
      "normalized": false,
      "special": true
    },
    {
      "id": 5,
      "content": "<shift_s>",
      "single_word": false,
      "lstrip": false,
      "rstrip": false,
      "normalized": false,
      "special": true
    },
    {
      "id": 6,
      "content": "</shift_s>",
      "single_word": false,
      "lstrip": false,
      "rstrip": false,
      "normalized": false,
      "special": true
    },
    {
      "id": 7,
      "content": "<shift_pad>",
      "single_word": false,
      "lstrip": false,
      "rstrip": false,
      "normalized": false,
      "special": true
    },
    {
      "id": 8,
      "content": "<mask_0>",
      "single_word": false,
      "lstrip": false,
      "rstrip": false,
      "normalized": false,
      "special": true
    },
    {
      "id": 9,
      "content": "<reponame>",
      "single_word": false,
      "lstrip": false,
      "rstrip": false,
      "normalized": false,
      "special": true
    },
    {
      "id": 10,
      "content": "<filename>",
      "single_word": false,
      "lstrip": false,
      "rstrip": false,
      "normalized": false,
      "special": true
    },
    {
      "id": 11,
      "content": "<gh_stars>",
      "single_word": false,
      "lstrip": false,
      "rstrip": false,
      "normalized": false,
      "special": true
    },
    {
      "id": 12,
      "content": "<issue_start>",
      "single_word": false,
      "lstrip": false,
      "rstrip": false,
      "normalized": false,
      "special": true
    },
    {
      "id": 13,
      "content": "<issue_comment>",
      "single_word": false,
      "lstrip": false,
      "rstrip": false,
      "normalized": false,
      "special": true
    },
    {
      "id": 14,
      "content": "<issue_closed>",
      "single_word": false,
      "lstrip": false,
      "rstrip": false,
      "normalized": false,
      "special": true
    },
    {
      "id": 15,
      "content": "<jupyter_start>",
      "single_word": false,
      "lstrip": false,
      "rstrip": false,
      "normalized": false,
      "special": true
    },
    {
      "id": 16,
      "content": "<jupyter_text>",
      "single_word": false,
      "lstrip": false,
      "rstrip": false,
      "normalized": false,
      "special": true
    },
    {
      "id": 17,
      "content": "<jupyter_code>",
      "single_word": false,
      "lstrip": false,
      "rstrip": false,
      "normalized": false,
      "special": true
    },
    {
      "id": 18,
      "content": "<jupyter_output>",
      "single_word": false,
      "lstrip": false,
      "rstrip": false,
      "normalized": false,
      "special": true
    },
    {
      "id": 19,
      "content": "<empty_output>",
      "single_word": false,
      "lstrip": false,
      "rstrip": false,
      "normalized": false,
      "special": true
    },
    {
      "id": 20,
      "content": "<commit_before>",
      "single_word": false,
      "lstrip": false,
      "rstrip": false,
      "normalized": false,
      "special": true
    },
    {
      "id": 21,
      "content": "<commit_msg>",
      "single_word": false,
      "lstrip": false,
      "rstrip": false,
      "normalized": false,
      "special": true
    },
    {
      "id": 22,
      "content": "<commit_after>",
      "single_word": false,
      "lstrip": false,
      "rstrip": false,
      "normalized": false,
      "special": true
    },
    {
      "id": 23,
      "content": "<program_lang>",
      "single_word": false,
      "lstrip": false,
      "rstrip": false,
      "normalized": false,
      "special": true
    },
    {
      "id": 24,
      "content": "<|image_placeholder|>",
      "single_word": false,
      "lstrip": false,
      "rstrip": false,
      "normalized": false,
      "special": true
    },
    {
      "id": 25,
      "content": "<|url_placeholder|>",
      "single_word": false,
      "lstrip": false,
      "rstrip": false,
      "normalized": false,
      "special": true
    },
    {
      "id": 26,
      "content": "<|hyperlink_placeholder|>",
      "single_word": false,
      "lstrip": false,
      "rstrip": false,
      "normalized": false,
      "special": true
    },
    {
      "id": 27,
      "content": "<|table_placeholder|>",
      "single_word": false,
      "lstrip": false,
      "rstrip": false,
      "normalized": false,
      "special": true
    },
    {
      "id": 28,
      "content": "<|equation_placeholder|>",
      "single_word": false,
      "lstrip": false,
      "rstrip": false,
      "normalized": false,
      "special": true
    },
    {
      "id": 29,
      "content": "<|code_placeholder|>",
      "single_word": false,
      "lstrip": false,
      "rstrip": false,
      "normalized": false,
      "special": true
    },
    {
      "id": 30,
      "content": "<|reference_placeholder|>",
      "single_word": false,
      "lstrip": false,
      "rstrip": false,
      "normalized": false,
      "special": true
    },
    {
      "id": 31,
      "content": "<|endoftext|>",
      "single_word": false,
      "lstrip": false,
      "rstrip": false,
      "normalized": false,
      "special": true
    },
    {
      "id": 32,
      "content": "<fim_prefix>",
      "single_word": false,
      "lstrip": false,
      "rstrip": false,
      "normalized": false,
      "special": true
    },
    {
      "id": 33,
      "content": "<fim_middle>",
      "single_word": false,
      "lstrip": false,
      "rstrip": false,
      "normalized": false,
      "special": true
    },
    {
      "id": 34,
      "content": "<fim_suffix>",
      "single_word": false,
      "lstrip": false,
      "rstrip": false,
      "normalized": false,
      "special": true
    },
    {
      "id": 35,
      "content": "<fim_pad>",
      "single_word": false,
      "lstrip": false,
      "rstrip": false,
      "normalized": false,
      "special": true
    },
    {
      "id": 36,
      "content": "<longcat_think>",
      "single_word": false,
      "lstrip": false,
      "rstrip": false,
      "normalized": false,
      "special": false
    },
    {
      "id": 37,
      "content": "</longcat_think>",
      "single_word": false,
      "lstrip": false,
      "rstrip": false,
      "normalized": false,
      "special": false
    },
    {
      "id": 38,
      "content": "<longcat_answer>",
      "single_word": false,
      "lstrip": false,
      "rstrip": false,
      "normalized": false,
      "special": false
    },
    {
      "id": 39,
      "content": "</longcat_answer>",
      "single_word": false,
      "lstrip": false,
      "rstrip": false,
      "normalized": false,
      "special": false
    },
    {
      "id": 40,
      "content": "<longcat_files>",
      "single_word": false,
      "lstrip": false,
      "rstrip": false,
      "normalized": false,
      "special": false
    },
    {
      "id": 41,
      "content": "</longcat_files>",
      "single_word": false,
      "lstrip": false,
      "rstrip": false,
      "normalized": false,
      "special": false
    },
    {
      "id": 42,
      "content": "<longcat_tool_call>",
      "single_word": false,
      "lstrip": false,
      "rstrip": false,
      "normalized": false,
      "special": false
    },
    {
      "id": 43,
      "content": "</longcat_tool_call>",
      "single_word": false,
      "lstrip": false,
      "rstrip": false,
      "normalized": false,
      "special": false
    },
    {
      "id": 44,
      "content": "<longcat_tool_declare>",
      "single_word": false,
      "lstrip": false,
      "rstrip": false,
      "normalized": false,
      "special": true
    },
    {
      "id": 45,
      "content": "</longcat_tool_declare>",
      "single_word": false,
      "lstrip": false,
      "rstrip": false,
      "normalized": false,
      "special": true
    },
    {
      "id": 46,
      "content": "<longcat_system>",
      "single_word": false,
      "lstrip": false,
      "rstrip": false,
      "normalized": false,
      "special": true
    },
    {
      "id": 47,
      "content": "<longcat_user>",
      "single_word": false,
      "lstrip": false,
      "rstrip": false,
      "normalized": false,
      "special": true
    },
    {
      "id": 48,
      "content": "<longcat_assistant>",
      "single_word": false,
      "lstrip": false,
      "rstrip": false,
      "normalized": false,
      "special": true
    },
    {
      "id": 49,
      "content": "<longcat_tool_response>",
      "single_word": false,
      "lstrip": false,
      "rstrip": false,
      "normalized": false,
      "special": false
    },
    {
      "id": 50,
      "content": "</longcat_tool_response>",
      "single_word": false,
      "lstrip": false,
      "rstrip": false,
      "normalized": false,
      "special": false
    },
    {
      "id": 51,
      "content": "<longcat_arg_key>",
      "single_word": false,
      "lstrip": false,
      "rstrip": false,
      "normalized": false,
      "special": false
    },
    {
      "id": 52,
      "content": "</longcat_arg_key>",
      "single_word": false,
      "lstrip": false,
      "rstrip": false,
      "normalized": false,
      "special": false
    },
    {
      "id": 53,
      "content": "<longcat_arg_value>",
      "single_word": false,
      "lstrip": false,
      "rstrip": false,
      "normalized": false,
      "special": false
    },
    {
      "id": 54,
      "content": "</longcat_arg_value>",
      "single_word": false,
      "lstrip": false,
      "rstrip": false,
      "normalized": false,
      "special": false
    },
    {
      "id": 55,
      "content": "<longcat_observation>",
      "single_word": false,
      "lstrip": false,
      "rstrip": false,
      "normalized": false,
      "special": true
    },
    {
      "id": 56,
      "content": "<mask_32>",
      "single_word": false,
      "lstrip": false,
      "rstrip": false,
      "normalized": false,
      "special": true
    },
    {
      "id": 57,
      "content": "<mask_33>",
      "single_word": false,
      "lstrip": false,
      "rstrip": false,
      "normalized": false,
      "special": true
    },
    {
      "id": 58,
      "content": "<mask_34>",
      "single_word": false,
      "lstrip": false,
      "rstrip": false,
      "normalized": false,
      "special": true
    },
    {
      "id": 59,
      "content": "<mask_35>",
      "single_word": false,
      "lstrip": false,
      "rstrip": false,
      "normalized": false,
      "special": true
    },
    {
      "id": 60,
      "content": "<mask_36>",
      "single_word": false,
      "lstrip": false,
      "rstrip": false,
      "normalized": false,
      "special": true
    },
    {
      "id": 61,
      "content": "<mask_37>",
      "single_word": false,
      "lstrip": false,
      "rstrip": false,
      "normalized": false,
      "special": true
    },
    {
      "id": 62,
      "content": "<mask_38>",
      "single_word": false,
      "lstrip": false,
      "rstrip": false,
      "normalized": false,
      "special": true
    },
    {
      "id": 63,
      "content": "<mask_39>",
      "single_word": false,
      "lstrip": false,
      "rstrip": false,
      "normalized": false,
      "special": true
    },
    {
      "id": 64,
      "content": "<mask_40>",
      "single_word": false,
      "lstrip": false,
      "rstrip": false,
      "normalized": false,
      "special": true
    },
    {
      "id": 65,
      "content": "<mask_41>",
      "single_word": false,
      "lstrip": false,
      "rstrip": false,
      "normalized": false,
      "special": true
    },
    {
      "id": 66,
      "content": "<mask_42>",
      "single_word": false,
      "lstrip": false,
      "rstrip": false,
      "normalized": false,
      "special": true
    },
    {
      "id": 67,
      "content": "<mask_43>",
      "single_word": false,
      "lstrip": false,
      "rstrip": false,
      "normalized": false,
      "special": true
    },
    {
      "id": 68,
      "content": "<mask_44>",
      "single_word": false,
      "lstrip": false,
      "rstrip": false,
      "normalized": false,
      "special": true
    },
    {
      "id": 69,
      "content": "<mask_45>",
      "single_word": false,
      "lstrip": false,
      "rstrip": false,
      "normalized": false,
      "special": true
    },
    {
      "id": 70,
      "content": "<mask_46>",
      "single_word": false,
      "lstrip": false,
      "rstrip": false,
      "normalized": false,
      "special": true
    },
    {
      "id": 71,
      "content": "<mask_47>",
      "single_word": false,
      "lstrip": false,
      "rstrip": false,
      "normalized": false,
      "special": true
    },
    {
      "id": 72,
      "content": "<mask_48>",
      "single_word": false,
      "lstrip": false,
      "rstrip": false,
      "normalized": false,
      "special": true
    },
    {
      "id": 73,
      "content": "<mask_49>",
      "single_word": false,
      "lstrip": false,
      "rstrip": false,
      "normalized": false,
      "special": true
    },
    {
      "id": 74,
      "content": "<mask_50>",
      "single_word": false,
      "lstrip": false,
      "rstrip": false,
      "normalized": false,
      "special": true
    },
    {
      "id": 75,
      "content": "<mask_51>",
      "single_word": false,
      "lstrip": false,
      "rstrip": false,
      "normalized": false,
      "special": true
    },
    {
      "id": 76,
      "content": "<mask_52>",
      "single_word": false,
      "lstrip": false,
      "rstrip": false,
      "normalized": false,
      "special": true
    },
    {
      "id": 77,
      "content": "<mask_53>",
      "single_word": false,
      "lstrip": false,
      "rstrip": false,
      "normalized": false,
      "special": true
    },
    {
      "id": 78,
      "content": "<mask_54>",
      "single_word": false,
      "lstrip": false,
      "rstrip": false,
      "normalized": false,
      "special": true
    },
    {
      "id": 79,
      "content": "<mask_55>",
      "single_word": false,
      "lstrip": false,
      "rstrip": false,
      "normalized": false,
      "special": true
    },
    {
      "id": 80,
      "content": "<mask_56>",
      "single_word": false,
      "lstrip": false,
      "rstrip": false,
      "normalized": false,
      "special": true
    },
    {
      "id": 81,
      "content": "<mask_57>",
      "single_word": false,
      "lstrip": false,
      "rstrip": false,
      "normalized": false,
      "special": true
    },
    {
      "id": 82,
      "content": "<mask_58>",
      "single_word": false,
      "lstrip": false,
      "rstrip": false,
      "normalized": false,
      "special": true
    },
    {
      "id": 83,
      "content": "<mask_59>",
      "single_word": false,
      "lstrip": false,
      "rstrip": false,
      "normalized": false,
      "special": true
    },
    {
      "id": 84,
      "content": "<mask_60>",
      "single_word": false,
      "lstrip": false,
      "rstrip": false,
      "normalized": false,
      "special": true
    },
    {
      "id": 85,
      "content": "<mask_61>",
      "single_word": false,
      "lstrip": false,
      "rstrip": false,
      "normalized": false,
      "special": true
    },
    {
      "id": 86,
      "content": "<mask_62>",
      "single_word": false,
      "lstrip": false,
      "rstrip": false,
      "normalized": false,
      "special": true
    },
    {
      "id": 87,
      "content": "<mask_63>",
      "single_word": false,
      "lstrip": false,
      "rstrip": false,
      "normalized": false,
      "special": true
    },
    {
      "id": 88,
      "content": "<mask_64>",
      "single_word": false,
      "lstrip": false,
      "rstrip": false,
      "normalized": false,
      "special": true
    },
    {
      "id": 89,
      "content": "<mask_65>",
      "single_word": false,
      "lstrip": false,
      "rstrip": false,
      "normalized": false,
      "special": true
    },
    {
      "id": 90,
      "content": "<mask_66>",
      "single_word": false,
      "lstrip": false,
      "rstrip": false,
      "normalized": false,
      "special": true
    },
    {
      "id": 91,
      "content": "<mask_67>",
      "single_word": false,
      "lstrip": false,
      "rstrip": false,
      "normalized": false,
      "special": true
    },
    {
      "id": 92,
      "content": "<mask_68>",
      "single_word": false,
      "lstrip": false,
      "rstrip": false,
      "normalized": false,
      "special": true
    },
    {
      "id": 93,
      "content": "<mask_69>",
      "single_word": false,
      "lstrip": false,
      "rstrip": false,
      "normalized": false,
      "special": true
    },
    {
      "id": 94,
      "content": "<mask_70>",
      "single_word": false,
      "lstrip": false,
      "rstrip": false,
      "normalized": false,
      "special": true
    },
    {
      "id": 95,
      "content": "<mask_71>",
      "single_word": false,
      "lstrip": false,
      "rstrip": false,
      "normalized": false,
      "special": true
    },
    {
      "id": 96,
      "content": "<mask_72>",
      "single_word": false,
      "lstrip": false,
      "rstrip": false,
      "normalized": false,
      "special": true
    },
    {
      "id": 97,
      "content": "<mask_73>",
      "single_word": false,
      "lstrip": false,
      "rstrip": false,
      "normalized": false,
      "special": true
    },
    {
      "id": 98,
      "content": "<mask_74>",
      "single_word": false,
      "lstrip": false,
      "rstrip": false,
      "normalized": false,
      "special": true
    },
    {
      "id": 99,
      "content": "<mask_75>",
      "single_word": false,
      "lstrip": false,
      "rstrip": false,
      "normalized": false,
      "special": true
    },
    {
      "id": 100,
      "content": "<mask_76>",
      "single_word": false,
      "lstrip": false,
      "rstrip": false,
      "normalized": false,
      "special": true
    },
    {
      "id": 101,
      "content": "<mask_77>",
      "single_word": false,
      "lstrip": false,
      "rstrip": false,
      "normalized": false,
      "special": true
    },
    {
      "id": 102,
      "content": "<mask_78>",
      "single_word": false,
      "lstrip": false,
      "rstrip": false,
      "normalized": false,
      "special": true
    },
    {
      "id": 103,
      "content": "<mask_79>",
      "single_word": false,
      "lstrip": false,
      "rstrip": false,
      "normalized": false,
      "special": true
    },
    {
      "id": 104,
      "content": "<mask_80>",
      "single_word": false,
      "lstrip": false,
      "rstrip": false,
      "normalized": false,
      "special": true
    },
    {
      "id": 105,
      "content": "<mask_81>",
      "single_word": false,
      "lstrip": false,
      "rstrip": false,
      "normalized": false,
      "special": true
    },
    {
      "id": 106,
      "content": "<mask_82>",
      "single_word": false,
      "lstrip": false,
      "rstrip": false,
      "normalized": false,
      "special": true
    },
    {
      "id": 107,
      "content": "<mask_83>",
      "single_word": false,
      "lstrip": false,
      "rstrip": false,
      "normalized": false,
      "special": true
    },
    {
      "id": 108,
      "content": "<mask_84>",
      "single_word": false,
      "lstrip": false,
      "rstrip": false,
      "normalized": false,
      "special": true
    },
    {
      "id": 109,
      "content": "<mask_85>",
      "single_word": false,
      "lstrip": false,
      "rstrip": false,
      "normalized": false,
      "special": true
    },
    {
      "id": 110,
      "content": "<mask_86>",
      "single_word": false,
      "lstrip": false,
      "rstrip": false,
      "normalized": false,
      "special": true
    },
    {
      "id": 111,
      "content": "<mask_87>",
      "single_word": false,
      "lstrip": false,
      "rstrip": false,
      "normalized": false,
      "special": true
    },
    {
      "id": 112,
      "content": "<mask_88>",
      "single_word": false,
      "lstrip": false,
      "rstrip": false,
      "normalized": false,
      "special": true
    },
    {
      "id": 113,
      "content": "<mask_89>",
      "single_word": false,
      "lstrip": false,
      "rstrip": false,
      "normalized": false,
      "special": true
    },
    {
      "id": 114,
      "content": "<mask_90>",
      "single_word": false,
      "lstrip": false,
      "rstrip": false,
      "normalized": false,
      "special": true
    },
    {
      "id": 115,
      "content": "<mask_91>",
      "single_word": false,
      "lstrip": false,
      "rstrip": false,
      "normalized": false,
      "special": true
    },
    {
      "id": 116,
      "content": "<mask_92>",
      "single_word": false,
      "lstrip": false,
      "rstrip": false,
      "normalized": false,
      "special": true
    },
    {
      "id": 117,
      "content": "<mask_93>",
      "single_word": false,
      "lstrip": false,
      "rstrip": false,
      "normalized": false,
      "special": true
    },
    {
      "id": 118,
      "content": "<mask_94>",
      "single_word": false,
      "lstrip": false,
      "rstrip": false,
      "normalized": false,
      "special": true
    },
    {
      "id": 119,
      "content": "<mask_95>",
      "single_word": false,
      "lstrip": false,
      "rstrip": false,
      "normalized": false,
      "special": true
    },
    {
      "id": 120,
      "content": "<mask_96>",
      "single_word": false,
      "lstrip": false,
      "rstrip": false,
      "normalized": false,
      "special": true
    },
    {
      "id": 121,
      "content": "<mask_97>",
      "single_word": false,
      "lstrip": false,
      "rstrip": false,
      "normalized": false,
      "special": true
    },
    {
      "id": 122,
      "content": "<mask_98>",
      "single_word": false,
      "lstrip": false,
      "rstrip": false,
      "normalized": false,
      "special": true
    },
    {
      "id": 123,
      "content": "<mask_99>",
      "single_word": false,
      "lstrip": false,
      "rstrip": false,
      "normalized": false,
      "special": true
    },
    {
      "id": 124,
      "content": "<mask_100>",
      "single_word": false,
      "lstrip": false,
      "rstrip": false,
      "normalized": false,
      "special": true
    },
    {
      "id": 125,
      "content": "<mask_101>",
      "single_word": false,
      "lstrip": false,
      "rstrip": false,
      "normalized": false,
      "special": true
    },
    {
      "id": 126,
      "content": "<mask_102>",
      "single_word": false,
      "lstrip": false,
      "rstrip": false,
      "normalized": false,
      "special": true
    },
    {
      "id": 127,
      "content": "<mask_103>",
      "single_word": false,
      "lstrip": false,
      "rstrip": false,
      "normalized": false,
      "special": true
    },
    {
      "id": 128,
      "content": "<mask_104>",
      "single_word": false,
      "lstrip": false,
      "rstrip": false,
      "normalized": false,
      "special": true
    },
    {
      "id": 129,
      "content": "<mask_105>",
      "single_word": false,
      "lstrip": false,
      "rstrip": false,
      "normalized": false,
      "special": true
    },
    {
      "id": 130,
      "content": "<mask_106>",
      "single_word": false,
      "lstrip": false,
      "rstrip": false,
      "normalized": false,
      "special": true
    },
    {
      "id": 131,
      "content": "<mask_107>",
      "single_word": false,
      "lstrip": false,
      "rstrip": false,
      "normalized": false,
      "special": true
    },
    {
      "id": 132,
      "content": "<mask_108>",
      "single_word": false,
      "lstrip": false,
      "rstrip": false,
      "normalized": false,
      "special": true
    },
    {
      "id": 133,
      "content": "<mask_109>",
      "single_word": false,
      "lstrip": false,
      "rstrip": false,
      "normalized": false,
      "special": true
    },
    {
      "id": 134,
      "content": "<mask_110>",
      "single_word": false,
      "lstrip": false,
      "rstrip": false,
      "normalized": false,
      "special": true
    },
    {
      "id": 135,
      "content": "<mask_111>",
      "single_word": false,
      "lstrip": false,
      "rstrip": false,
      "normalized": false,
      "special": true
    },
    {
      "id": 136,
      "content": "<mask_112>",
      "single_word": false,
      "lstrip": false,
      "rstrip": false,
      "normalized": false,
      "special": true
    },
    {
      "id": 137,
      "content": "<mask_113>",
      "single_word": false,
      "lstrip": false,
      "rstrip": false,
      "normalized": false,
      "special": true
    },
    {
      "id": 138,
      "content": "<mask_114>",
      "single_word": false,
      "lstrip": false,
      "rstrip": false,
      "normalized": false,
      "special": true
    },
    {
      "id": 139,
      "content": "<mask_115>",
      "single_word": false,
      "lstrip": false,
      "rstrip": false,
      "normalized": false,
      "special": true
    },
    {
      "id": 140,
      "content": "<mask_116>",
      "single_word": false,
      "lstrip": false,
      "rstrip": false,
      "normalized": false,
      "special": true
    },
    {
      "id": 141,
      "content": "<mask_117>",
      "single_word": false,
      "lstrip": false,
      "rstrip": false,
      "normalized": false,
      "special": true
    },
    {
      "id": 142,
      "content": "<mask_118>",
      "single_word": false,
      "lstrip": false,
      "rstrip": false,
      "normalized": false,
      "special": true
    },
    {
      "id": 143,
      "content": "<mask_119>",
      "single_word": false,
      "lstrip": false,
      "rstrip": false,
      "normalized": false,
      "special": true
    },
    {
      "id": 144,
      "content": "<mask_120>",
      "single_word": false,
      "lstrip": false,
      "rstrip": false,
      "normalized": false,
      "special": true
    },
    {
      "id": 145,
      "content": "<mask_121>",
      "single_word": false,
      "lstrip": false,
      "rstrip": false,
      "normalized": false,
      "special": true
    },
    {
      "id": 146,
      "content": "<mask_122>",
      "single_word": false,
      "lstrip": false,
      "rstrip": false,
      "normalized": false,
      "special": true
    },
    {
      "id": 147,
      "content": "<mask_123>",
      "single_word": false,
      "lstrip": false,
      "rstrip": false,
      "normalized": false,
      "special": true
    },
    {
      "id": 148,
      "content": "<mask_124>",
      "single_word": false,
      "lstrip": false,
      "rstrip": false,
      "normalized": false,
      "special": true
    },
    {
      "id": 149,
      "content": "<mask_125>",
      "single_word": false,
      "lstrip": false,
      "rstrip": false,
      "normalized": false,
      "special": true
    },
    {
      "id": 150,
      "content": "<mask_126>",
      "single_word": false,
      "lstrip": false,
      "rstrip": false,
      "normalized": false,
      "special": true
    },
    {
      "id": 151,
      "content": "<mask_127>",
      "single_word": false,
      "lstrip": false,
      "rstrip": false,
      "normalized": false,
      "special": true
    },
    {
      "id": 152,
      "content": "<mask_128>",
      "single_word": false,
      "lstrip": false,
      "rstrip": false,
      "normalized": false,
      "special": true
    },
    {
      "id": 153,
      "content": "<mask_129>",
      "single_word": false,
      "lstrip": false,
      "rstrip": false,
      "normalized": false,
      "special": true
    },
    {
      "id": 154,
      "content": "<mask_130>",
      "single_word": false,
      "lstrip": false,
      "rstrip": false,
      "normalized": false,
      "special": true
    },
    {
      "id": 155,
      "content": "<mask_131>",
      "single_word": false,
      "lstrip": false,
      "rstrip": false,
      "normalized": false,
      "special": true
    },
    {
      "id": 156,
      "content": "<mask_132>",
      "single_word": false,
      "lstrip": false,
      "rstrip": false,
      "normalized": false,
      "special": true
    },
    {
      "id": 157,
      "content": "<mask_133>",
      "single_word": false,
      "lstrip": false,
      "rstrip": false,
      "normalized": false,
      "special": true
    },
    {
      "id": 158,
      "content": "<mask_134>",
      "single_word": false,
      "lstrip": false,
      "rstrip": false,
      "normalized": false,
      "special": true
    },
    {
      "id": 159,
      "content": "<mask_135>",
      "single_word": false,
      "lstrip": false,
      "rstrip": false,
      "normalized": false,
      "special": true
    },
    {
      "id": 160,
      "content": "<mask_136>",
      "single_word": false,
      "lstrip": false,
      "rstrip": false,
      "normalized": false,
      "special": true
    },
    {
      "id": 161,
      "content": "<mask_137>",
      "single_word": false,
      "lstrip": false,
      "rstrip": false,
      "normalized": false,
      "special": true
    },
    {
      "id": 162,
      "content": "<mask_138>",
      "single_word": false,
      "lstrip": false,
      "rstrip": false,
      "normalized": false,
      "special": true
    },
    {
      "id": 163,
      "content": "<mask_139>",
      "single_word": false,
      "lstrip": false,
      "rstrip": false,
      "normalized": false,
      "special": true
    },
    {
      "id": 164,
      "content": "<mask_140>",
      "single_word": false,
      "lstrip": false,
      "rstrip": false,
      "normalized": false,
      "special": true
    },
    {
      "id": 165,
      "content": "<mask_141>",
      "single_word": false,
      "lstrip": false,
      "rstrip": false,
      "normalized": false,
      "special": true
    },
    {
      "id": 166,
      "content": "<mask_142>",
      "single_word": false,
      "lstrip": false,
      "rstrip": false,
      "normalized": false,
      "special": true
    },
    {
      "id": 167,
      "content": "<mask_143>",
      "single_word": false,
      "lstrip": false,
      "rstrip": false,
      "normalized": false,
      "special": true
    },
    {
      "id": 168,
      "content": "<mask_144>",
      "single_word": false,
      "lstrip": false,
      "rstrip": false,
      "normalized": false,
      "special": true
    },
    {
      "id": 169,
      "content": "<mask_145>",
      "single_word": false,
      "lstrip": false,
      "rstrip": false,
      "normalized": false,
      "special": true
    },
    {
      "id": 170,
      "content": "<mask_146>",
      "single_word": false,
      "lstrip": false,
      "rstrip": false,
      "normalized": false,
      "special": true
    },
    {
      "id": 171,
      "content": "<mask_147>",
      "single_word": false,
      "lstrip": false,
      "rstrip": false,
      "normalized": false,
      "special": true
    },
    {
      "id": 172,
      "content": "<mask_148>",
      "single_word": false,
      "lstrip": false,
      "rstrip": false,
      "normalized": false,
      "special": true
    },
    {
      "id": 173,
      "content": "<mask_149>",
      "single_word": false,
      "lstrip": false,
      "rstrip": false,
      "normalized": false,
      "special": true
    },
    {
      "id": 174,
      "content": "<mask_150>",
      "single_word": false,
      "lstrip": false,
      "rstrip": false,
      "normalized": false,
      "special": true
    },
    {
      "id": 175,
      "content": "<mask_151>",
      "single_word": false,
      "lstrip": false,
      "rstrip": false,
      "normalized": false,
      "special": true
    },
    {
      "id": 176,
      "content": "<mask_152>",
      "single_word": false,
      "lstrip": false,
      "rstrip": false,
      "normalized": false,
      "special": true
    },
    {
      "id": 177,
      "content": "<mask_153>",
      "single_word": false,
      "lstrip": false,
      "rstrip": false,
      "normalized": false,
      "special": true
    },
    {
      "id": 178,
      "content": "<mask_154>",
      "single_word": false,
      "lstrip": false,
      "rstrip": false,
      "normalized": false,
      "special": true
    },
    {
      "id": 179,
      "content": "<mask_155>",
      "single_word": false,
      "lstrip": false,
      "rstrip": false,
      "normalized": false,
      "special": true
    },
    {
      "id": 180,
      "content": "<mask_156>",
      "single_word": false,
      "lstrip": false,
      "rstrip": false,
      "normalized": false,
      "special": true
    },
    {
      "id": 181,
      "content": "<mask_157>",
      "single_word": false,
      "lstrip": false,
      "rstrip": false,
      "normalized": false,
      "special": true
    },
    {
      "id": 182,
      "content": "<mask_158>",
      "single_word": false,
      "lstrip": false,
      "rstrip": false,
      "normalized": false,
      "special": true
    },
    {
      "id": 183,
      "content": "<mask_159>",
      "single_word": false,
      "lstrip": false,
      "rstrip": false,
      "normalized": false,
      "special": true
    },
    {
      "id": 184,
      "content": "<mask_160>",
      "single_word": false,
      "lstrip": false,
      "rstrip": false,
      "normalized": false,
      "special": true
    },
    {
      "id": 185,
      "content": "<mask_161>",
      "single_word": false,
      "lstrip": false,
      "rstrip": false,
      "normalized": false,
      "special": true
    },
    {
      "id": 186,
      "content": "<mask_162>",
      "single_word": false,
      "lstrip": false,
      "rstrip": false,
      "normalized": false,
      "special": true
    },
    {
      "id": 187,
      "content": "<mask_163>",
      "single_word": false,
      "lstrip": false,
      "rstrip": false,
      "normalized": false,
      "special": true
    },
    {
      "id": 188,
      "content": "<mask_164>",
      "single_word": false,
      "lstrip": false,
      "rstrip": false,
      "normalized": false,
      "special": true
    },
    {
      "id": 189,
      "content": "<mask_165>",
      "single_word": false,
      "lstrip": false,
      "rstrip": false,
      "normalized": false,
      "special": true
    },
    {
      "id": 190,
      "content": "<mask_166>",
      "single_word": false,
      "lstrip": false,
      "rstrip": false,
      "normalized": false,
      "special": true
    },
    {
      "id": 191,
      "content": "<mask_167>",
      "single_word": false,
      "lstrip": false,
      "rstrip": false,
      "normalized": false,
      "special": true
    },
    {
      "id": 192,
      "content": "<mask_168>",
      "single_word": false,
      "lstrip": false,
      "rstrip": false,
      "normalized": false,
      "special": true
    },
    {
      "id": 193,
      "content": "<mask_169>",
      "single_word": false,
      "lstrip": false,
      "rstrip": false,
      "normalized": false,
      "special": true
    },
    {
      "id": 194,
      "content": "<mask_170>",
      "single_word": false,
      "lstrip": false,
      "rstrip": false,
      "normalized": false,
      "special": true
    },
    {
      "id": 195,
      "content": "<mask_171>",
      "single_word": false,
      "lstrip": false,
      "rstrip": false,
      "normalized": false,
      "special": true
    },
    {
      "id": 196,
      "content": "<mask_172>",
      "single_word": false,
      "lstrip": false,
      "rstrip": false,
      "normalized": false,
      "special": true
    },
    {
      "id": 197,
      "content": "<mask_173>",
      "single_word": false,
      "lstrip": false,
      "rstrip": false,
      "normalized": false,
      "special": true
    },
    {
      "id": 198,
      "content": "<mask_174>",
      "single_word": false,
      "lstrip": false,
      "rstrip": false,
      "normalized": false,
      "special": true
    },
    {
      "id": 199,
      "content": "<mask_175>",
      "single_word": false,
      "lstrip": false,
      "rstrip": false,
      "normalized": false,
      "special": true
    },
    {
      "id": 200,
      "content": "<mask_176>",
      "single_word": false,
      "lstrip": false,
      "rstrip": false,
      "normalized": false,
      "special": true
    },
    {
      "id": 201,
      "content": "<mask_177>",
      "single_word": false,
      "lstrip": false,
      "rstrip": false,
      "normalized": false,
      "special": true
    },
    {
      "id": 202,
      "content": "<mask_178>",
      "single_word": false,
      "lstrip": false,
      "rstrip": false,
      "normalized": false,
      "special": true
    },
    {
      "id": 203,
      "content": "<mask_179>",
      "single_word": false,
      "lstrip": false,
      "rstrip": false,
      "normalized": false,
      "special": true
    },
    {
      "id": 204,
      "content": "<mask_180>",
      "single_word": false,
      "lstrip": false,
      "rstrip": false,
      "normalized": false,
      "special": true
    },
    {
      "id": 205,
      "content": "<mask_181>",
      "single_word": false,
      "lstrip": false,
      "rstrip": false,
      "normalized": false,
      "special": true
    },
    {
      "id": 206,
      "content": "<mask_182>",
      "single_word": false,
      "lstrip": false,
      "rstrip": false,
      "normalized": false,
      "special": true
    },
    {
      "id": 207,
      "content": "<mask_183>",
      "single_word": false,
      "lstrip": false,
      "rstrip": false,
      "normalized": false,
      "special": true
    },
    {
      "id": 208,
      "content": "<mask_184>",
      "single_word": false,
      "lstrip": false,
      "rstrip": false,
      "normalized": false,
      "special": true
    },
    {
      "id": 209,
      "content": "<mask_185>",
      "single_word": false,
      "lstrip": false,
      "rstrip": false,
      "normalized": false,
      "special": true
    },
    {
      "id": 210,
      "content": "<mask_186>",
      "single_word": false,
      "lstrip": false,
      "rstrip": false,
      "normalized": false,
      "special": true
    },
    {
      "id": 211,
      "content": "<mask_187>",
      "single_word": false,
      "lstrip": false,
      "rstrip": false,
      "normalized": false,
      "special": true
    },
    {
      "id": 212,
      "content": "<mask_188>",
      "single_word": false,
      "lstrip": false,
      "rstrip": false,
      "normalized": false,
      "special": true
    },
    {
      "id": 213,
      "content": "<mask_189>",
      "single_word": false,
      "lstrip": false,
      "rstrip": false,
      "normalized": false,
      "special": true
    },
    {
      "id": 214,
      "content": "<mask_190>",
      "single_word": false,
      "lstrip": false,
      "rstrip": false,
      "normalized": false,
      "special": true
    },
    {
      "id": 215,
      "content": "<mask_191>",
      "single_word": false,
      "lstrip": false,
      "rstrip": false,
      "normalized": false,
      "special": true
    },
    {
      "id": 216,
      "content": "<mask_192>",
      "single_word": false,
      "lstrip": false,
      "rstrip": false,
      "normalized": false,
      "special": true
    },
    {
      "id": 217,
      "content": "<mask_193>",
      "single_word": false,
      "lstrip": false,
      "rstrip": false,
      "normalized": false,
      "special": true
    },
    {
      "id": 218,
      "content": "<mask_194>",
      "single_word": false,
      "lstrip": false,
      "rstrip": false,
      "normalized": false,
      "special": true
    },
    {
      "id": 219,
      "content": "<mask_195>",
      "single_word": false,
      "lstrip": false,
      "rstrip": false,
      "normalized": false,
      "special": true
    },
    {
      "id": 220,
      "content": "<mask_196>",
      "single_word": false,
      "lstrip": false,
      "rstrip": false,
      "normalized": false,
      "special": true
    },
    {
      "id": 221,
      "content": "<mask_197>",
      "single_word": false,
      "lstrip": false,
      "rstrip": false,
      "normalized": false,
      "special": true
    },
    {
      "id": 222,
      "content": "<mask_198>",
      "single_word": false,
      "lstrip": false,
      "rstrip": false,
      "normalized": false,
      "special": true
    },
    {
      "id": 223,
      "content": "<mask_199>",
      "single_word": false,
      "lstrip": false,
      "rstrip": false,
      "normalized": false,
      "special": true
    }
  ],
  "normalizer": null,
  "pre_tokenizer": {
    "type": "Sequence",
    "pretokenizers": [
      {
        "type": "Split",
        "pattern": {
          "Regex": "(?i:'s|'t|'re|'ve|'m|'ll|'d)|[^\r\n\\p{L}\\p{N}]?\\p{L}+|\\p{N}| ?[^\\s\\p{L}\\p{N}]+[\r\n]*|\\s*[\r\n]+|\\s+(?!\\S)|\\s+"
        },
        "behavior": "Isolated",
        "invert": false
      },
      {
        "type": "Split",
        "pattern": {
          "Regex": " ?[！-／：-～‘-‟　-。《》「」【】]+"
        },
        "behavior": "Isolated",
        "invert": false
      },
      {
        "type": "Split",
        "pattern": {
          "Regex": "[一-龥ࠀ-一가-퟿]+"
        },
        "behavior": "Isolated",
        "invert": false
      },
      {
        "type": "ByteLevel",
        "add_prefix_space": false,
        "trim_offsets": true,
        "use_regex": false
      }
    ]
  },
  "post_processor": {
    "type": "ByteLevel",
    "add_prefix_space": true,
    "trim_offsets": false,
    "use_regex": true
  },
  "decoder": {
    "type": "ByteLevel",
    "add_prefix_space": true,
    "trim_offsets": true,
    "use_regex": true
  },
  "model": {
    "type": "BPE",
    "dropout": null,
    "unk_token": null,
    "continuing_subword_prefix": null,
    "end_of_word_suffix": null,
    "fuse_unk": false,
    "byte_fallback": false,
    "vocab": {
      "<longcat_unk>": 0,
      "<longcat_s>": 1,
      "</longcat_s>": 2,
      "<longcat_pad>": 3,
      "<shift_unk>": 4,
      "<shift_s>": 5,
      "</shift_s>": 6,
      "<shift_pad>": 7,
      "<mask_0>": 8,
      "<reponame>": 9,
      "<filename>": 10,
      "<gh_stars>": 11,
      "<issue_start>": 12,
      "<issue_comment>": 13,
      "<issue_closed>": 14,
      "<jupyter_start>": 15,
      "<jupyter_text>": 16,
      "<jupyter_code>": 17,
      "<jupyter_output>": 18,
      "<empty_output>": 19,
      "<commit_before>": 20,
      "<commit_msg>": 21,
      "<commit_after>": 22,
      "<program_lang>": 23,
      "<|image_placeholder|>": 24,
      "<|url_placeholder|>": 25,
      "<|hyperlink_placeholder|>": 26,
      "<|table_placeholder|>": 27,
      "<|equation_placeholder|>": 28,
      "<|code_placeholder|>": 29,
      "<|reference_placeholder|>": 30,
      "<|endoftext|>": 31,
      "<fim_prefix>": 32,
      "<fim_middle>": 33,
      "<fim_suffix>": 34,
      "<fim_pad>": 35,
      "<longcat_think>": 36,
      "</longcat_think>": 37,
      "<longcat_answer>": 38,
      "</longcat_answer>": 39,
      "<longcat_files>": 40,
      "</longcat_files>": 41,
      "<longcat_tool_call>": 42,
      "</longcat_tool_call>": 43,
      "<longcat_tool_declare>": 44,
      "</longcat_tool_declare>": 45,
      "<longcat_system>": 46,
      "<longcat_user>": 47,
      "<longcat_assistant>": 48,
      "<longcat_tool_response>": 49,
      "</longcat_tool_response>": 50,
      "<longcat_arg_key>": 51,
      "</longcat_arg_key>": 52,
      "<longcat_arg_value>": 53,
      "</longcat_arg_value>": 54,
      "<longcat_observation>": 55,
      "<mask_32>": 56,
      "<mask_33>": 57,
      "<mask_34>": 58,
      "<mask_35>": 59,
      "<mask_36>": 60,
      "<mask_37>": 61,
      "<mask_38>": 62,
      "<mask_39>": 63,
      "<mask_40>": 64,
      "<mask_41>": 65,
      "<mask_42>": 66,
      "<mask_43>": 67,
      "<mask_44>": 68,
      "<mask_45>": 69,
      "<mask_46>": 70,
      "<mask_47>": 71,
      "<mask_48>": 72,
      "<mask_49>": 73,
      "<mask_50>": 74,
      "<mask_51>": 75,
      "<mask_52>": 76,
      "<mask_53>": 77,
      "<mask_54>": 78,
      "<mask_55>": 79,
      "<mask_56>": 80,
      "<mask_57>": 81,
      "<mask_58>": 82,
      "<mask_59>": 83,
      "<mask_60>": 84,
      "<mask_61>": 85,
      "<mask_62>": 86,
      "<mask_63>": 87,
      "<mask_64>": 88,
      "<mask_65>": 89,
      "<mask_66>": 90,
      "<mask_67>": 91,
      "<mask_68>": 92,
      "<mask_69>": 93,
      "<mask_70>": 94,
      "<mask_71>": 95,
      "<mask_72>": 96,
      "<mask_73>": 97,
      "<mask_74>": 98,
      "<mask_75>": 99,
      "<mask_76>": 100,
      "<mask_77>": 101,
      "<mask_78>": 102,
      "<mask_79>": 103,
      "<mask_80>": 104,
      "<mask_81>": 105,
      "<mask_82>": 106,
      "<mask_83>": 107,
      "<mask_84>": 108,
      "<mask_85>": 109,
      "<mask_86>": 110,
      "<mask_87>": 111,
      "<mask_88>": 112,
      "<mask_89>": 113,
      "<mask_90>": 114,
      "<mask_91>": 115,
      "<mask_92>": 116,
      "<mask_93>": 117,
      "<mask_94>": 118,
      "<mask_95>": 119,
      "<mask_96>": 120,
      "<mask_97>": 121,
      "<mask_98>": 122,
      "<mask_99>": 123,
      "<mask_100>": 124,
      "<mask_101>": 125,
      "<mask_102>": 126,
      "<mask_103>": 127,
      "<mask_104>": 128,
      "<mask_105>": 129,
      "<mask_106>": 130,
      "<mask_107>": 131,
      "<mask_108>": 132,
      "<mask_109>": 133,
      "<mask_110>": 134,
      "<mask_111>": 135,
      "<mask_112>": 136,
      "<mask_113>": 137,
      "<mask_114>": 138,
      "<mask_115>": 139,
      "<mask_116>": 140,
      "<mask_117>": 141,
      "<mask_118>": 142,
      "<mask_119>": 143,
      "<mask_120>": 144,
      "<mask_121>": 145,
      "<mask_122>": 146,
      "<mask_123>": 147,
      "<mask_124>": 148,
      "<mask_125>": 149,
      "<mask_126>": 150,
      "<mask_127>": 151,
      "<mask_128>": 152,
      "<mask_129>": 153,
      "<mask_130>": 154,
      "<mask_131>": 155,
      "<mask_132>": 156,
      "<mask_133>": 157,
      "<mask_134>": 158,
      "<mask_135>": 159,
      "<mask_136>": 160,
      "<mask_137>": 161,
      "<mask_138>": 162,
      "<mask_139>": 163,
      "<mask_140>": 164,
      "<mask_141>": 165,
      "<mask_142>": 166,
      "<mask_143>": 167,
      "<mask_144>": 168,
      "<mask_145>": 169,
      "<mask_146>": 170,
      "<mask_147>": 171,
      "<mask_148>": 172,
      "<mask_149>": 173,
      "<mask_150>": 174,
      "<mask_151>": 175,
      "<mask_152>": 176,
      "<mask_153>": 177,
      "<mask_154>": 178,
      "<mask_155>": 179,
      "<mask_156>": 180,
      "<mask_157>": 181,
      "<mask_158>": 182,
      "<mask_159>": 183,
      "<mask_160>": 184,
      "<mask_161>": 185,
      "<mask_162>": 186,
      "<mask_163>": 187,
      "<mask_164>": 188,
      "<mask_165>": 189,
      "<mask_166>": 190,
      "<mask_167>": 191,
      "<mask_168>": 192,
      "<mask_169>": 193,
      "<mask_170>": 194,
      "<mask_171>": 195,
      "<mask_172>": 196,
      "<mask_173>": 197,
      "<mask_174>": 198,
      "<mask_175>": 199,
      "<mask_176>": 200,
      "<mask_177>": 201,
      "<mask_178>": 202,
      "<mask_179>": 203,
      "<mask_180>": 204,
      "<mask_181>": 205,
      "<mask_182>": 206,
      "<mask_183>": 207,
      "<mask_184>": 208,
      "<mask_185>": 209,
      "<mask_186>": 210,
      "<mask_187>": 211,
      "<mask_188>": 212,
      "<mask_189>": 213,
      "<mask_190>": 214,
      "<mask_191>": 215,
      "<mask_192>": 216,
      "<mask_193>": 217,
      "<mask_194>": 218,
      "<mask_195>": 219,
      "<mask_196>": 220,
      "<mask_197>": 221,
      "<mask_198>": 222,
      "<mask_199>": 223,
      "!": 224,
      "\"": 225,
      "#": 226,
      "$": 227,
      "%": 228,
      "&": 229,
      "'": 230,
      "(": 231,
      ")": 232,
      "*": 233,
      "+": 234,
      ",": 235,
      "-": 236,
      ".": 237,
      "/": 238,
      "0": 239,
      "1": 240,
      "2": 241,
      "3": 242,
      "4": 243,
      "5": 244,
      "6": 245,
      "7": 246,
      "8": 247,
      "9": 248,
      ":": 249,
      ";": 250,
      "<": 251,
      "=": 252,
      ">": 253,
      "?": 254,
      "@": 255,
      "A": 256,
      "B": 257,
      "C": 258,
      "D": 259,
      "E": 260,
      "F": 261,
      "G": 262,
      "H": 263,
      "I": 264,
      "J": 265,
      "K": 266,
      "L": 267,
      "M": 268,
      "N": 269,
      "O": 270,
      "P": 271,
      "Q": 272,
      "R": 273,
      "S": 274,
      "T": 275,
      "U": 276,
      "V": 277,
      "W": 278,
      "X": 279,
      "Y": 280,
      "Z": 281,
      "[": 282,
      "\\": 283,
      "]": 284,
      "^": 285,
      "_": 286,
      "`": 287,
      "a": 288,
      "b": 289,
      "c": 290,
      "d": 291,
      "e": 292,
      "f": 293,
      "g": 294,
      "h": 295,
      "i": 296,
      "j": 297,
      "k": 298,
      "l": 299,
      "m": 300,
      "n": 301,
      "o": 302,
      "p": 303,
      "q": 304,
      "r": 305,
      "s": 306,
      "t": 307,
      "u": 308,
      "v": 309,
      "w": 310,
      "x": 311,
      "y": 312,
      "z": 313,
      "{": 314,
      "|": 315,
      "}": 316,
      "~": 317,
      "¡": 318,
      "¢": 319,
      "£": 320,
      "¤": 321,
      "¥": 322,
      "¦": 323,
      "§": 324,
      "¨": 325,
      "©": 326,
      "ª": 327,
      "«": 328,
      "¬": 329,
      "®": 330,
      "¯": 331,
      "°": 332,
      "±": 333,
      "²": 334,
      "³": 335,
      "´": 336,
      "µ": 337,
      "¶": 338,
      "·": 339,
      "¸": 340,
      "¹": 341,
      "º": 342,
      "»": 343,
      "¼": 344,
      "½": 345,
      "¾": 346,
      "¿": 347,
      "À": 348,
      "Á": 349,
      "Â": 350,
      "Ã": 351,
      "Ä": 352,
      "Å": 353,
      "Æ": 354,
      "Ç": 355,
      "È": 356,
      "É": 357,
      "Ê": 358,
      "Ë": 359,
      "Ì": 360,
      "Í": 361,
      "Î": 362,
      "Ï": 363,
      "Ð": 364,
      "Ñ": 365,
      "Ò": 366,
      "Ó": 367,
      "Ô": 368,
      "Õ": 369,
      "Ö": 370,
      "×": 371,
      "Ø": 372,
      "Ù": 373,
      "Ú": 374,
      "Û": 375,
      "Ü": 376,
      "Ý": 377,
      "Þ": 378,
      "ß": 379,
      "à": 380,
      "á": 381,
      "â": 382,
      "ã": 383,
      "ä": 384,
      "å": 385,
      "æ": 386,
      "ç": 387,
      "è": 388,
      "é": 389,
      "ê": 390,
      "ë": 391,
      "ì": 392,
      "í": 393,
      "î": 394,
      "ï": 395,
      "ð": 396,
      "ñ": 397,
      "ò": 398,
      "ó": 399,
      "ô": 400,
      "õ": 401,
      "ö": 402,
      "÷": 403,
      "ø": 404,
      "ù": 405,
      "ú": 406,
      "û": 407,
      "ü": 408,
      "ý": 409,
      "þ": 410,
      "ÿ": 411,
      "Ā": 412,
      "ā": 413,
      "Ă": 414,
      "ă": 415,
      "Ą": 416,
      "ą": 417,
      "Ć": 418,
      "ć": 419,
      "Ĉ": 420,
      "ĉ": 421,
      "Ċ": 422,
      "ċ": 423,
      "Č": 424,
      "č": 425,
      "Ď": 426,
      "ď": 427,
      "Đ": 428,
      "đ": 429,
      "Ē": 430,
      "ē": 431,
      "Ĕ": 432,
      "ĕ": 433,
      "Ė": 434,
      "ė": 435,
      "Ę": 436,
      "ę": 437,
      "Ě": 438,
      "ě": 439,
      "Ĝ": 440,
      "ĝ": 441,
      "Ğ": 442,
      "ğ": 443,
      "Ġ": 444,
      "ġ": 445,
      "Ģ": 446,
      "ģ": 447,
      "Ĥ": 448,
      "ĥ": 449,
      "Ħ": 450,
      "ħ": 451,
      "Ĩ": 452,
      "ĩ": 453,
      "Ī": 454,
      "ī": 455,
      "Ĭ": 456,
      "ĭ": 457,
      "Į": 458,
      "į": 459,
      "İ": 460,
      "ı": 461,
      "Ĳ": 462,
      "ĳ": 463,
      "Ĵ": 464,
      "ĵ": 465,
      "Ķ": 466,
      "ķ": 467,
      "ĸ": 468,
      "Ĺ": 469,
      "ĺ": 470,
      "Ļ": 471,
      "ļ": 472,
      "Ľ": 473,
      "ľ": 474,
      "Ŀ": 475,
      "ŀ": 476,
      "Ł": 477,
      "ł": 478,
      "Ń": 479,
      "ĠĠ": 480,
      "Ġt": 481,
      "in": 482,
      "Ġa": 483,
      "he": 484,
      "ĠĠĠĠ": 485,
      "ï¼": 486,
      "ä¸": 487,
      "on": 488,
      "er": 489,
      "re": 490,
      "ï¼Į": 491,
      "at": 492,
      "ãĢ": 493,
      "Ġthe": 494,
      "Ġs": 495,
      "en": 496,
      "or": 497,
      "çļ": 498,
      "çļĦ": 499,
      "Ġc": 500,
      "is": 501,
      "it": 502,
      "es": 503,
      "an": 504,
      "Ġw": 505,
      "Ġo": 506,
      "ed": 507,
      "äº": 508,
      "al": 509,
      "ar": 510,
      "Ġf": 511,
      "Ġp": 512,
      "æľ": 513,
      "ing": 514,
      "Ġb": 515,
      "nd": 516,
      "ion": 517,
      "åı": 518,
      "Ġin": 519,
      "ou": 520,
      "åħ": 521,
      "le": 522,
      "Ġof": 523,
      "ic": 524,
      "ãĢĤ": 525,
      "Ġm": 526,
      "as": 527,
      "Ġd": 528,
      "ĠĠĠĠĠĠĠĠ": 529,
      "ä»": 530,
      "å¤": 531,
      "ro": 532,
      "Ġto": 533,
      "ĠĠĠ": 534,
      "Ġand": 535,
      "å®": 536,
      "ent": 537,
      "et": 538,
      "ct": 539,
      "åĪ": 540,
      "åľ": 541,
      "âĢ": 542,
      "ä½": 543,
      "Ġh": 544,
      "åĲ": 545,
      "st": 546,
      "el": 547,
      "çĶ": 548,
      "ãĢģ": 549,
      "æĺ": 550,
      "Ġth": 551,
      "Ġre": 552,
      "om": 553,
      "æĸ": 554,
      "il": 555,
      "è¿": 556,
      "Ġn": 557,
      "æĪ": 558,
      "å¹": 559,
      "am": 560,
      "åĬ": 561,
      "id": 562,
      "å°": 563,
      "Ġl": 564,
      "ä¹": 565,
      "--": 566,
      ".Ċ": 567,
      "Ġe": 568,
      "ä¸Ģ": 569,
      "åį": 570,
      "im": 571,
      "æĹ": 572,
      "åĽ": 573,
      "ĠS": 574,
      "ç»": 575,
      "ut": 576,
      "Ġ(": 577,
      "ĠT": 578,
      "ol": 579,
      "ig": 580,
      "åŃ": 581,
      "ot": 582,
      "ur": 583,
      "ac": 584,
      "ad": 585,
      ";Ċ": 586,
      "æĺ¯": 587,
      "è¯": 588,
      "ĠI": 589,
      "us": 590,
      "Ġg": 591,
      "ĠA": 592,
      "ĠC": 593,
      "ation": 594,
      "ve": 595,
      "è®": 596,
      "Ġis": 597,
      "å¸": 598,
      "ä¼": 599,
      "æĿ": 600,
      "å·": 601,
      "ow": 602,
      "Ġfor": 603,
      "ly": 604,
      "ï¼ļ": 605,
      "æľī": 606,
      "äºº": 607,
      "åľ¨": 608,
      "æī": 609,
      "éĩ": 610,
      "ver": 611,
      "ay": 612,
      "Ġ=": 613,
      "å¾": 614,
      "ul": 615,
      "Ġst": 616,
      "åĮ": 617,
      "if": 618,
      "ĠĠĠĠĠĠĠ": 619,
      "éĢ": 620,
      "Ġbe": 621,
      "ce": 622,
      "åº": 623,
      "ä¸Ń": 624,
      "Ġon": 625,
      "è¡": 626,
      "se": 627,
      "å¼": 628,
      "od": 629,
      "å¹´": 630,
      "ter": 631,
      "ch": 632,
      "ĠM": 633,
      "ä¸į": 634,
      "åĩ": 635,
      "ith": 636,
      "un": 637,
      "ag": 638,
      "äºĨ": 639,
      "çī": 640,
      "åĨ": 641,
      "èĢ": 642,
      "ir": 643,
      "æķ": 644,
      "çĽ": 645,
      "å±": 646,
      "Ġ\"": 647,
      "em": 648,
      "Ġthat": 649,
      "å¥": 650,
      "ate": 651,
      "å¤§": 652,
      "Ġcon": 653,
      "ĠP": 654,
      "Ġas": 655,
      "um": 656,
      "her": 657,
      "å¯": 658,
      "åĴ": 659,
      "ab": 660,
      "ri": 661,
      "Ġwith": 662,
      "ç§": 663,
      "ĠB": 664,
      "pe": 665,
      "æĬ": 666,
      "éĻ": 667,
      "æĶ": 668,
      "æł": 669,
      "ĥ½": 670,
      "Ġv": 671,
      "åĴĮ": 672,
      "Ġy": 673,
      "è§": 674,
      "Ġan": 675,
      "æĢ": 676,
      "æ°": 677,
      "ĉĉ": 678,
      "è´": 679,
      "ĊĊ": 680,
      "ist": 681,
      "est": 682,
      "èµ": 683,
      "th": 684,
      "ap": 685,
      "æŃ": 686,
      "qu": 687,
      "åİ": 688,
      "çİ": 689,
      "ĠH": 690,
      "Ġwas": 691,
      "æ³": 692,
      "Ġpro": 693,
      "Ġal": 694,
      "Ġ{": 695,
      "ĠĠĠĠĠĠĠĠĠĠĠĠĠĠĠĠ": 696,
      "ĠD": 697,
      "res": 698,
      "Ġit": 699,
      "å¿": 700,
      "éĹ": 701,
      "----": 702,
      "oc": 703,
      "ĠF": 704,
      "and": 705,
      "ĠR": 706,
      "Ġ$": 707,
      "èĩ": 708,
      ");Ċ": 709,
      "ä¸º": 710,
      "ht": 711,
      "ĠThe": 712,
      "åĵ": 713,
      "ä¸Ĭ": 714,
      "å½": 715,
      "çº": 716,
      "è¦": 717,
      "éĿ": 718,
      "ä»¥": 719,
      "ç«": 720,
      "ain": 721,
      "os": 722,
      "Ġwh": 723,
      "æµ": 724,
      "ä½ľ": 725,
      "çĶŁ": 726,
      "ä¿": 727,
      "Ġ|": 728,
      "ĠL": 729,
      "åĳ": 730,
      ")Ċ": 731,
      "Ġhe": 732,
      "Ġde": 733,
      "åĽ½": 734,
      "op": 735,
      "æİ": 736,
      "Ġr": 737,
      "æ²": 738,
      "çĲ": 739,
      "ew": 740,
      "çĶ¨": 741,
      "çľ": 742,
      "éģ": 743,
      "**": 744,
      "ess": 745,
      "ers": 746,
      "ĠW": 747,
      "ction": 748,
      "//": 749,
      "åŃ¦": 750,
      "ub": 751,
      "æŀ": 752,
      "ĠN": 753,
      "âĢľ": 754,
      "rom": 755,
      "ort": 756,
      "âĢĿ": 757,
      "end": 758,
      "up": 759,
      "Ġex": 760,
      "Ġcom": 761,
      "Ġat": 762,
      "iv": 763,
      "ï¼ī": 764,
      "æĪĳ": 765,
      "ï¼Ī": 766,
      "åĩº": 767,
      "our": 768,
      "çŃ": 769,
      "åħ¬": 770,
      "æĭ": 771,
      "ore": 772,
      "Ġ*": 773,
      "åľ°": 774,
      "ĠG": 775,
      "Ġby": 776,
      "è¡Į": 777,
      "æĹ¶": 778,
      "è¦ģ": 779,
      "Ġor": 780,
      "ä¸ª": 781,
      "ity": 782,
      "ill": 783,
      "ex": 784,
      "ke": 785,
      "pl": 786,
      "æĪĲ": 787,
      "ame": 788,
      "ä¸ļ": 789,
      "åī": 790,
      "ĠE": 791,
      "Ġ\\": 792,
      "ç¬": 793,
      "ment": 794,
      "ld": 795,
      "æĹ¥": 796,
      "è½": 797,
      "å·¥": 798,
      "ä¼ļ": 799,
      "åŁ": 800,
      "ant": 801,
      "pt": 802,
      "Ġse": 803,
      "art": 804,
      "çĤ": 805,
      "æĥ": 806,
      "nt": 807,
      "åıĳ": 808,
      "åĪ°": 809,
      "æ¯": 810,
      "èĥ½": 811,
      "åı¯": 812,
      "éĽ": 813,
      "å®¶": 814,
      "Ġare": 815,
      "æľĪ": 816,
      "ue": 817,
      "éĺ": 818,
      "ä¾": 819,
      "è¾": 820,
      "..": 821,
      "all": 822,
      "Ġfrom": 823,
      "é¢": 824,
      "æ¸": 825,
      "æ±": 826,
      "ç®": 827,
      "ĠĠĠĠĠĠĠĠĠĠĠ": 828,
      "ight": 829,
      "Ġ{Ċ": 830,
      "ure": 831,
      "ç½": 832,
      "ud": 833,
      "Ġ}": 834,
      "çĲĨ": 835,
      "ive": 836,
      "čĊ": 837,
      "'s": 838,
      "æĮ": 839,
      "è¿Ļ": 840,
      "ect": 841,
      "åĪĨ": 842,
      "éĥ": 843,
      "æĻ": 844,
      "ass": 845,
      "Ġthis": 846,
      "æĸĩ": 847,
      "é«": 848,
      "og": 849,
      "ä¸ĭ": 850,
      ",Ċ": 851,
      "age": 852,
      "æ´": 853,
      "ĠO": 854,
      "äºİ": 855,
      "å¸Ĥ": 856,
      "ra": 857,
      "æĦ": 858,
      "ine": 859,
      "ç¬¬": 860,
      "æĿ¥": 861,
      "æ¬": 862,
      "æĸ¹": 863,
      "ies": 864,
      "Ġnot": 865,
      "ack": 866,
      "éķ": 867,
      "å°ı": 868,
      "iz": 869,
      "å¤ļ": 870,
      "æĽ": 871,
      "æĸ°": 872,
      "ial": 873,
      "Ġus": 874,
      "Ġsh": 875,
      "èĤ": 876,
      "èĩª": 877,
      "ç¨": 878,
      "Ġyou": 879,
      "ave": 880,
      "åĢ": 881,
      "Ġch": 882,
      "cl": 883,
      "å»": 884,
      "Ġ-": 885,
      "é¡": 886,
      "ä»ĸ": 887,
      "ĠJ": 888,
      "åĵģ": 889,
      "å¦": 890,
      "ä¸»": 891,
      "==": 892,
      "ge": 893,
      "ell": 894,
      "ard": 895,
      "è·": 896,
      "åŃĲ": 897,
      "ust": 898,
      "é«ĺ": 899,
      "èģ": 900,
      "éĥ¨": 901,
      "ç¾": 902,
      "ated": 903,
      "rou": 904,
      "æ³ķ": 905,
      "æľ¬": 906,
      "port": 907,
      "åĲį": 908,
      "å¯¹": 909,
      "Ġcl": 910,
      "ff": 911,
      "per": 912,
      "å°±": 913,
      "çĻ": 914,
      "ult": 915,
      "urn": 916,
      "Ġwe": 917,
      "Ġle": 918,
      "åħ¨": 919,
      "åĲİ": 920,
      "ä¹ĭ": 921,
      "out": 922,
      "ãĢĬ": 923,
      "ãĢĭ": 924,
      "ip": 925,
      "Ġtr": 926,
      "ä¹Ł": 927,
      "con": 928,
      "Ġ<": 929,
      "åĬ¨": 930,
      "âĢĻ": 931,
      "éĿ¢": 932,
      "çŃī": 933,
      "ould": 934,
      "able": 935,
      "ber": 936,
      "are": 937,
      "æı": 938,
      "å®ļ": 939,
      "ich": 940,
      "com": 941,
      "int": 942,
      "èī": 943,
      "orm": 944,
      "åģ": 945,
      "ç¤": 946,
      "ç»ı": 947,
      "åĮĸ": 948,
      "ĠU": 949,
      "åĲĪ": 950,
      "å¼Ģ": 951,
      "æľº": 952,
      "ast": 953,
      "çŁ": 954,
      "Ġ'": 955,
      "ind": 956,
      "å¤©": 957,
      "çķ": 958,
      "å§": 959,
      "ost": 960,
      "èĪ": 961,
      "The": 962,
      "ç©": 963,
      "ans": 964,
      "èĬ": 965,
      "å¥½": 966,
      "Ġhave": 967,
      ">Ċ": 968,
      "äº§": 969,
      "ire": 970,
      "Ġif": 971,
      "av": 972,
      "()": 973,
      "ile": 974,
      "å¿ĥ": 975,
      "ase": 976,
      "ä¸İ": 977,
      "Ġk": 978,
      "ical": 979,
      "é£": 980,
      "åĬĽ": 981,
      "éļ": 982,
      "ok": 983,
      "--------": 984,
      "ord": 985,
      "ï¼Ľ": 986,
      "ak": 987,
      "Ġint": 988,
      "ide": 989,
      "åĿ": 990,
      "Ġpl": 991,
      "ice": 992,
      "ary": 993,
      "èĢħ": 994,
      "åı¸": 995,
      "Ġres": 996,
      "åĲĮ": 997,
      "éĤ": 998,
      "ĠĠĠĠĠ": 999,
      "åĬł": 1000,
      "è¿ĩ": 1001,
      "ç´": 1002,
      "ç±": 1003,
      "åħ¶": 1004,
      "tr": 1005,
      "è¿Ľ": 1006,
      "ä½ĵ": 1007,
      "çĶµ": 1008,
      "åıĬ": 1009,
      "=\"": 1010,
      "ä»¬": 1011,
      "ath": 1012,
      "Ġcan": 1013,
      "ong": 1014,
      "Ġj": 1015,
      "Ġhis": 1016,
      "ign": 1017,
      "æĢ§": 1018,
      "å¾Ĺ": 1019,
      "çİ°": 1020,
      "ere": 1021,
      "åīį": 1022,
      "å»º": 1023,
      "åĮº": 1024,
      "è¶": 1025,
      "ib": 1026,
      "ä¸ī": 1027,
      "ition": 1028,
      "éĥ½": 1029,
      "èĲ": 1030,
      "ef": 1031,
      "Ġcomp": 1032,
      "ĠIn": 1033,
      "æīĢ": 1034,
      "äºĭ": 1035,
      "çł": 1036,
      "ep": 1037,
      "Ġwhe": 1038,
      "ace": 1039,
      "ime": 1040,
      "act": 1041,
      "ia": 1042,
      "ç³": 1043,
      "å®ŀ": 1044,
      "éĹ´": 1045,
      "è®¾": 1046,
      "turn": 1047,
      "çĦ": 1048,
      "Ġab": 1049,
      "èĢĮ": 1050,
      "ĠK": 1051,
      "Ġcont": 1052,
      "åº¦": 1053,
      "åĬ¡": 1054,
      "éģĵ": 1055,
      "æľĢ": 1056,
      "è°": 1057,
      "Ġ[": 1058,
      "çī©": 1059,
      "ext": 1060,
      "çĿ": 1061,
      "åĪ¶": 1062,
      "ther": 1063,
      "ata": 1064,
      "éĢļ": 1065,
      "ä½į": 1066,
      "Ġad": 1067,
      ".\"": 1068,
      "}Ċ": 1069,
      "get": 1070,
      "åħ¬åı¸": 1071,
      "åķ": 1072,
      "æ°´": 1073,
      "é¦": 1074,
      "one": 1075,
      "ork": 1076,
      "cc": 1077,
      "è£": 1078,
      "Ġim": 1079,
      "çĪ": 1080,
      "å¤ĸ": 1081,
      "Ġme": 1082,
      "éķ¿": 1083,
      "Ġall": 1084,
      "æŁ": 1085,
      "éĩį": 1086,
      "ence": 1087,
      "ç®¡": 1088,
      "éħ": 1089,
      "Ġwhich": 1090,
      "ype": 1091,
      "çĤ¹": 1092,
      "Ġun": 1093,
      "ens": 1094,
      "åĨħ": 1095,
      "ang": 1096,
      "æģ": 1097,
      "èĭ": 1098,
      "eg": 1099,
      "Ġap": 1100,
      "ä½ł": 1101,
      "è¡¨": 1102,
      "å¦Ĥ": 1103,
      "æķĻ": 1104,
      "åħ³": 1105,
      "å®ī": 1106,
      "ĠV": 1107,
      "å¹³": 1108,
      "ear": 1109,
      "éĩĮ": 1110,
      "çĽ®": 1111,
      "è¨": 1112,
      "å±ķ": 1113,
      "Ġwere": 1114,
      "ç¾İ": 1115,
      "äºĮ": 1116,
      "ç¨ĭ": 1117,
      "æľŁ": 1118,
      "å¢": 1119,
      "ous": 1120,
      "çī¹": 1121,
      "ä»£": 1122,
      "åħ¥": 1123,
      "æį": 1124,
      "ance": 1125,
      "æĥħ": 1126,
      "å£": 1127,
      "du": 1128,
      "In": 1129,
      "æıĲ": 1130,
      "éĶ": 1131,
      "lic": 1132,
      "so": 1133,
      "éĩĳ": 1134,
      "æ°ĳ": 1135,
      "ite": 1136,
      "ç³»": 1137,
      "ç¥": 1138,
      "ress": 1139,
      "ç§ĳ": 1140,
      "ĠĠĠĠĠĠĠĠĠĠĠĠĠĠĠ": 1141,
      "Ġdo": 1142,
      "ry": 1143,
      "æ¶": 1144,
      "æĶ¿": 1145,
      "),": 1146,
      "fer": 1147,
      "éĩı": 1148,
      "è¯´": 1149,
      "gh": 1150,
      "Ġbut": 1151,
      "_{": 1152,
      "str": 1153,
      ":Ċ": 1154,
      "Ġar": 1155,
      "ä¿Ŀ": 1156,
      "Ġhas": 1157,
      "pro": 1158,
      "ode": 1159,
      "Ġout": 1160,
      "ll": 1161,
      "âĢĶ": 1162,
      "ĠSt": 1163,
      "åĳĺ": 1164,
      "ory": 1165,
      "é»": 1166,
      "éľ": 1167,
      "ome": 1168,
      "ail": 1169,
      "form": 1170,
      "ations": 1171,
      "åįģ": 1172,
      "è¢": 1173,
      ").": 1174,
      "æĬĢ": 1175,
      "und": 1176,
      "çģ": 1177,
      "ach": 1178,
      "ç½ĳ": 1179,
      "çľĭ": 1180,
      "çĽ¸": 1181,
      "æ¼": 1182,
      "æ¡": 1183,
      "Ġher": 1184,
      "æīĭ": 1185,
      "ions": 1186,
      "ä¿¡": 1187,
      "èµĦ": 1188,
      "è¥": 1189,
      "åĭ": 1190,
      "Ġen": 1191,
      "ount": 1192,
      "lo": 1193,
      "Ġup": 1194,
      "ec": 1195,
      "è·¯": 1196,
      "æķ°": 1197,
      "own": 1198,
      "åľº": 1199,
      "æ·": 1200,
      "ĠTh": 1201,
      "å¼ı": 1202,
      "âĢĵ": 1203,
      "ç²": 1204,
      "åŀ": 1205,
      "æ¨": 1206,
      "Ġsu": 1207,
      "è¥¿": 1208,
      "Ġ&": 1209,
      "æĺİ": 1210,
      "erv": 1211,
      "èµ·": 1212,
      "Ġhad": 1213,
      "ents": 1214,
      "ject": 1215,
      "ft": 1216,
      "æ¬¡": 1217,
      "æľį": 1218,
      "çĦ¶": 1219,
      "Ġone": 1220,
      "Ġdis": 1221,
      "ont": 1222,
      "æµ·": 1223,
      "elf": 1224,
      "Ġnew": 1225,
      "æĽ´": 1226,
      "ä»»": 1227,
      "è®¡": 1228,
      "ç§į": 1229,
      "åĸ": 1230,
      "->": 1231,
      "åĽł": 1232,
      "è¿ĺ": 1233,
      "å¾Ī": 1234,
      "Ġ+": 1235,
      "åĪ©": 1236,
      "Ġgo": 1237,
      "ild": 1238,
      "ç«ĭ": 1239,
      "æĦı": 1240,
      "ound": 1241,
      "ie": 1242,
      "ph": 1243,
      "åįĹ": 1244,
      "ç¼": 1245,
      "æ¯Ķ": 1246,
      "åŁº": 1247,
      "æº": 1248,
      "èį": 1249,
      "åºĶ": 1250,
      "å±±": 1251,
      "ple": 1252,
      "Ġwill": 1253,
      "te": 1254,
      "çĿĢ": 1255,
      "ä»¶": 1256,
      "ally": 1257,
      "ublic": 1258,
      "åħĥ": 1259,
      "Ġ:": 1260,
      "Ġreturn": 1261,
      "</": 1262,
      "æľ¯": 1263,
      "çĥ": 1264,
      "Ġper": 1265,
      "ï¼ģ": 1266,
      "ose": 1267,
      "ock": 1268,
      "ä½¿": 1269,
      "å¸¸": 1270,
      "Ġpre": 1271,
      "Ġso": 1272,
      "åı¯ä»¥": 1273,
      "ç¦": 1274,
      "Ġ//": 1275,
      "è¢«": 1276,
      "ook": 1277,
      "ä¸Ģä¸ª": 1278,
      "Ġstr": 1279,
      "å·¥ä½ľ": 1280,
      "Â·": 1281,
      "::": 1282,
      "æ´»": 1283,
      "ian": 1284,
      "èĥ": 1285,
      "row": 1286,
      "vel": 1287,
      "æŀľ": 1288,
      "ree": 1289,
      "çĶ±": 1290,
      "æŃ£": 1291,
      "ps": 1292,
      "Ġsc": 1293,
      "å°Ĩ": 1294,
      "ĠCh": 1295,
      "éĴ": 1296,
      "irst": 1297,
      "ake": 1298,
      "åĮĹ": 1299,
      "åŀĭ": 1300,
      "ely": 1301,
      "èī²": 1302,
      "éĵ": 1303,
      "åı°": 1304,
      "æĹł": 1305,
      "Ġpart": 1306,
      "ors": 1307,
      "Ġtheir": 1308,
      "é©": 1309,
      "çĸ": 1310,
      "è½¦": 1311,
      "ä½Ĩ": 1312,
      "éĻ¢": 1313,
      "åİ»": 1314,
      "æİ¥": 1315,
      "ç¤¾": 1316,
      "Ġev": 1317,
      "åķĨ": 1318,
      "\",": 1319,
      "èº": 1320,
      "ä¹Ī": 1321,
      "æŃ¤": 1322,
      "ink": 1323,
      "Ġthey": 1324,
      "åı£": 1325,
      "æĪĸ": 1326,
      "vers": 1327,
      "Ġqu": 1328,
      "æĸ¯": 1329,
      "low": 1330,
      "å½ĵ": 1331,
      "å¹¶": 1332,
      "åĶ": 1333,
      "ä¸ŃåĽ½": 1334,
      "clud": 1335,
      "__": 1336,
      "èİ": 1337,
      "tern": 1338,
      "âĢ¦": 1339,
      "ne": 1340,
      "éŁ": 1341,
      "##": 1342,
      "====": 1343,
      "Ġ}Ċ": 1344,
      "åİŁ": 1345,
      "æł¼": 1346,
      "éĤ£": 1347,
      "ert": 1348,
      "Ġsp": 1349,
      "èĻ": 1350,
      "Ġne": 1351,
      "we": 1352,
      "Ġother": 1353,
      "ä¹¦": 1354,
      "Ġman": 1355,
      "lect": 1356,
      "ize": 1357,
      "{\\": 1358,
      "çĤº": 1359,
      "alue": 1360,
      "ï¼Ł": 1361,
      "rib": 1362,
      "çĹ": 1363,
      "eth": 1364,
      "ug": 1365,
      "old": 1366,
      "Ġmore": 1367,
      "iss": 1368,
      "çľģ": 1369,
      "ob": 1370,
      "ĠY": 1371,
      "äº¤": 1372,
      "ater": 1373,
      "ark": 1374,
      "****": 1375,
      "Ġag": 1376,
      "ç¡": 1377,
      "çłĶ": 1378,
      "Ġalso": 1379,
      "ys": 1380,
      "æĥ³": 1381,
      "èĮ": 1382,
      "ç«ł": 1383,
      "æ»": 1384,
      "ov": 1385,
      "ish": 1386,
      "åĽĽ": 1387,
      "St": 1388,
      "ull": 1389,
      "éĸ": 1390,
      "ä¸ľ": 1391,
      "(\"": 1392,
      "è§£": 1393,
      "èº«": 1394,
      "ä»İ": 1395,
      "hed": 1396,
      "ick": 1397,
      "Ġclass": 1398,
      "ates": 1399,
      "ict": 1400,
      "åĻ": 1401,
      "åł": 1402,
      "çŁ¥": 1403,
      "unction": 1404,
      "Ġget": 1405,
      "ä¸ĵ": 1406,
      "Ġ|Ċ": 1407,
      "äºĽ": 1408,
      "yst": 1409,
      "æ¥": 1410,
      "ç±»": 1411,
      "very": 1412,
      "ck": 1413,
      "æµģ": 1414,
      "çı": 1415,
      "put": 1416,
      "åŁİ": 1417,
      "Ġbeen": 1418,
      "wo": 1419,
      "ove": 1420,
      "Ġli": 1421,
      "ings": 1422,
      "Ġshe": 1423,
      "Ġthere": 1424,
      "éª": 1425,
      "enc": 1426,
      "pon": 1427,
      "èĦ": 1428,
      "ener": 1429,
      "Ġtime": 1430,
      "æ²¡": 1431,
      "ĠIt": 1432,
      "åĲĦ": 1433,
      "æ¢": 1434,
      "Ġwho": 1435,
      "æĤ": 1436,
      "æĶ¶": 1437,
      "èĢĥ": 1438,
      "å½±": 1439,
      "fter": 1440,
      "Ġro": 1441,
      "ä¸ĸ": 1442,
      "Ġyour": 1443,
      "æ£": 1444,
      "éĻĲ": 1445,
      "å¥³": 1446,
      "erm": 1447,
      "Ġdef": 1448,
      "iew": 1449,
      "ĠHe": 1450,
      "Ġover": 1451,
      "Ġ@": 1452,
      "éĹ¨": 1453,
      "Ġ/": 1454,
      "mer": 1455,
      "ãĢĲ": 1456,
      "åįķ": 1457,
      "Ġmy": 1458,
      "å·²": 1459,
      "ãĢĳ": 1460,
      "æĦŁ": 1461,
      "use": 1462,
      "Ġsa": 1463,
      "ĉĉĉĉ": 1464,
      "é¡¹": 1465,
      "err": 1466,
      "èĩ³": 1467,
      "ption": 1468,
      "cre": 1469,
      "é¢ĺ": 1470,
      "ool": 1471,
      "ç»Ł": 1472,
      "Ġkn": 1473,
      "set": 1474,
      "pec": 1475,
      "æĸĻ": 1476,
      "è´¨": 1477,
      "éĽĨ": 1478,
      "å²": 1479,
      "Ġwhen": 1480,
      "Ġdes": 1481,
      "ç»ĵ": 1482,
      "ç»Ħ": 1483,
      "æ®": 1484,
      "æĢ»": 1485,
      "åĽŀ": 1486,
      "Ġwould": 1487,
      "Ġits": 1488,
      "_t": 1489,
      "åĲĳ": 1490,
      "ma": 1491,
      "Ġ.": 1492,
      "æĮģ": 1493,
      "Ġfirst": 1494,
      "èª": 1495,
      "åĻ¨": 1496,
      "æ¼Ķ": 1497,
      "è£ħ": 1498,
      "Ġany": 1499,
      "åľĭ": 1500,
      "æĹ¶éĹ´": 1501,
      "çº§": 1502,
      "Ġwork": 1503,
      "æłĩ": 1504,
      "åĮħ": 1505,
      "pect": 1506,
      "Ġ$\\": 1507,
      "ied": 1508,
      "çīĪ": 1509,
      "ç®¡çĲĨ": 1510,
      "par": 1511,
      "Ġabout": 1512,
      "å·ŀ": 1513,
      "Ġno": 1514,
      "å¸ĥ": 1515,
      "ix": 1516,
      "åıª": 1517,
      "Ġob": 1518,
      "Ġinto": 1519,
      "çº¿": 1520,
      "ystem": 1521,
      "å¯¼": 1522,
      "ĠĠĠĠĠĠĠĠĠĠĠĠĠĠĠĠĠĠĠĠĠĠĠĠĠĠĠĠĠĠĠĠ": 1523,
      "ss": 1524,
      "ç«Ļ": 1525,
      "åģļ": 1526,
      "çµ": 1527,
      "åħī": 1528,
      "Ġinter": 1529,
      "'t": 1530,
      "åħ±": 1531,
      "å·±": 1532,
      "Ġund": 1533,
      "ific": 1534,
      "oint": 1535,
      "ä¼ģ": 1536,
      "åħ·": 1537,
      "è§Ħ": 1538,
      "Ġset": 1539,
      "é£İ": 1540,
      "æ¸¸": 1541,
      "iel": 1542,
      "ays": 1543,
      "ref": 1544,
      "io": 1545,
      "å®¹": 1546,
      "rit": 1547,
      "èĤ²": 1548,
      "è¿Ĳ": 1549,
      "éľĢ": 1550,
      "æĪĳä»¬": 1551,
      "ng": 1552,
      "æĵ": 1553,
      "åıĤ": 1554,
      "æł¡": 1555,
      "æľįåĬ¡": 1556,
      "\"Ċ": 1557,
      "èĬĤ": 1558,
      "Ġind": 1559,
      "å¸Ī": 1560,
      "ER": 1561,
      "ual": 1562,
      "æ±Ĥ": 1563,
      "å¤Ħ": 1564,
      "ient": 1565,
      "èĲ¥": 1566,
      "å¤ĩ": 1567,
      "åı·": 1568,
      "è³": 1569,
      "sh": 1570,
      "ãģ": 1571,
      "æł·": 1572,
      "èĩªå·±": 1573,
      "ĠĊ": 1574,
      "éĢł": 1575,
      "æīĵ": 1576,
      "æĬ¥": 1577,
      "çĽ´": 1578,
      "æĮĩ": 1579,
      "ä»·": 1580,
      "èĢģ": 1581,
      "çĲĥ": 1582,
      "Ġbet": 1583,
      "çľŁ": 1584,
      "Ġass": 1585,
      "å½¢": 1586,
      "æ°Ķ": 1587,
      "Ġcol": 1588,
      "name": 1589,
      "äºĶ": 1590,
      "----------------": 1591,
      "ä¸ĩ": 1592,
      "æºĲ": 1593,
      "Ġte": 1594,
      "vent": 1595,
      "åıĹ": 1596,
      "æ²»": 1597,
      "èģĶ": 1598,
      "æį®": 1599,
      "åĦ": 1600,
      "å¾·": 1601,
      "Ġthan": 1602,
      "å°ĳ": 1603,
      "Ġpublic": 1604,
      "ade": 1605,
      "ä¸¤": 1606,
      "igh": 1607,
      "éĹ®": 1608,
      "éĢī": 1609,
      "å¹¿": 1610,
      "pos": 1611,
      "aw": 1612,
      "åħĭ": 1613,
      "æģ¯": 1614,
      "app": 1615,
      "anc": 1616,
      "è±": 1617,
      "Ġsup": 1618,
      "åĪĽ": 1619,
      "ãĥ": 1620,
      "æĶ¾": 1621,
      "ä¼ł": 1622,
      "Ġtwo": 1623,
      "å®Į": 1624,
      "å§Ķ": 1625,
      "les": 1626,
      "å¼º": 1627,
      "Ġsub": 1628,
      "ç¤º": 1629,
      "inal": 1630,
      "Ġrec": 1631,
      "å¥¹": 1632,
      "Ġcomm": 1633,
      "åĽ¾": 1634,
      "ç©º": 1635,
      "Ġmod": 1636,
      "Ġsome": 1637,
      "();Ċ": 1638,
      "èĳ": 1639,
      "ty": 1640,
      "pr": 1641,
      "sc": 1642,
      "æİ¨": 1643,
      "ield": 1644,
      "æ¸ħ": 1645,
      "ating": 1646,
      "Ġthem": 1647,
      "åħĪ": 1648,
      "æĿĳ": 1649,
      "ç©¶": 1650,
      "å±Ģ": 1651,
      "ä¾Ľ": 1652,
      "IN": 1653,
      "çħ": 1654,
      "Ġmay": 1655,
      "ç¶": 1656,
      "Ġadd": 1657,
      "çĭ": 1658,
      "ram": 1659,
      "Ġyear": 1660,
      "Ex": 1661,
      "èĬ±": 1662,
      "æķĪ": 1663,
      "åĪ«": 1664,
      "ç¥ŀ": 1665,
      "æĬĢæľ¯": 1666,
      "oid": 1667,
      "è®°": 1668,
      "çķĮ": 1669,
      "æĶ¹": 1670,
      "('": 1671,
      "Ġhim": 1672,
      "ari": 1673,
      "çİĭ": 1674,
      "fig": 1675,
      "æľĥ": 1676,
      "æĻĤ": 1677,
      "}ĊĊ": 1678,
      "åĥ": 1679,
      "Ġonly": 1680,
      "Ġacc": 1681,
      "å°Ķ": 1682,
      "èı": 1683,
      "Ġoff": 1684,
      "çĻ½": 1685,
      "round": 1686,
      "æ¯ı": 1687,
      "ative": 1688,
      ".com": 1689,
      "ç²¾": 1690,
      "æŀĹ": 1691,
      "éł": 1692,
      "Ġact": 1693,
      "ĠUn": 1694,
      "Ġtrans": 1695,
      "å¤´": 1696,
      "ON": 1697,
      "èŃ": 1698,
      "riv": 1699,
      "Ġunder": 1700,
      "Ġco": 1701,
      "æĪ¿": 1702,
      "rap": 1703,
      "åĬŀ": 1704,
      "Ġem": 1705,
      "å¡": 1706,
      "Ġi": 1707,
      "sp": 1708,
      "tring": 1709,
      "æ³¨": 1710,
      "æĪĺ": 1711,
      "Ġ#": 1712,
      "Ġpos": 1713,
      "ular": 1714,
      "Ġreg": 1715,
      "der": 1716,
      "æŁ¥": 1717,
      "Âł": 1718,
      "æĪ·": 1719,
      "}}": 1720,
      "arg": 1721,
      "ange": 1722,
      "Ġdif": 1723,
      "Ġrel": 1724,
      "æ±Ł": 1725,
      "ax": 1726,
      "ased": 1727,
      "è°ĥ": 1728,
      "Ġpr": 1729,
      "uct": 1730,
      "å®¢": 1731,
      "ä¼ģä¸ļ": 1732,
      "åıĳå±ķ": 1733,
      "æĶ¯": 1734,
      "è®©": 1735,
      "://": 1736,
      "è¿ĳ": 1737,
      "åıĺ": 1738,
      "Ġam": 1739,
      "ĠThis": 1740,
      "è²": 1741,
      "å¨": 1742,
      "æ¹": 1743,
      "æĺŁ": 1744,
      "çīĩ": 1745,
      "to": 1746,
      "Ġinclud": 1747,
      "Ġ}ĊĊ": 1748,
      "çłĶç©¶": 1749,
      "å£«": 1750,
      "ev": 1751,
      "red": 1752,
      "ics": 1753,
      "åĮ»": 1754,
      "Ġthen": 1755,
      "Ġ_": 1756,
      "the": 1757,
      "Ġfunction": 1758,
      "',": 1759,
      "ç±³": 1760,
      "umber": 1761,
      "Ġdata": 1762,
      "éħį": 1763,
      "ann": 1764,
      ";ĊĊ": 1765,
      "æķ´": 1766,
      "åıĸ": 1767,
      "éĿŀ": 1768,
      "Ġend": 1769,
      "æĸ½": 1770,
      "éŁ³": 1771,
      "æĴ": 1772,
      "æĭī": 1773,
      "Ġform": 1774,
      "oth": 1775,
      "ator": 1776,
      "Ġsaid": 1777,
      "Ġlike": 1778,
      "oy": 1779,
      "è§Ĩ": 1780,
      "ise": 1781,
      "åĤ": 1782,
      "Ġfe": 1783,
      "Ġwhere": 1784,
      "æĬķ": 1785,
      "åĬŁ": 1786,
      "åįİ": 1787,
      "fr": 1788,
      "Ġ*/": 1789,
      "ç»Ļ": 1790,
      "Ġprov": 1791,
      "cess": 1792,
      "resent": 1793,
      "æ·±": 1794,
      "Ġop": 1795,
      "è©": 1796,
      "é¥": 1797,
      "éĺ²": 1798,
      "é¾": 1799,
      "é¦ĸ": 1800,
      "è®º": 1801,
      "Ġpe": 1802,
      "éĺŁ": 1803,
      "åĨį": 1804,
      "åĩĨ": 1805,
      "å¢ŀ": 1806,
      "è´¹": 1807,
      "^{": 1808,
      "Ġcons": 1809,
      "Ġsuch": 1810,
      "èħ": 1811,
      "ause": 1812,
      "ä½¿çĶ¨": 1813,
      "å¤ª": 1814,
      "è¾¾": 1815,
      "Ġback": 1816,
      "åŃĹ": 1817,
      "ãĢĮ": 1818,
      "als": 1819,
      "Ġbl": 1820,
      "æĿ¡": 1821,
      "å¸¦": 1822,
      "åĽ¢": 1823,
      "Ġatt": 1824,
      "Ġafter": 1825,
      "Ġwhat": 1826,
      "ãĢį": 1827,
      "rough": 1828,
      "ĠĠĠĠĠĠĠĠĠĠĠĠĠĠĠĠĠĠĠ": 1829,
      "æĸ¼": 1830,
      "å¿«": 1831,
      "tt": 1832,
      "ãĤ": 1833,
      "è¯ģ": 1834,
      "Th": 1835,
      "li": 1836,
      "Ġour": 1837,
      "æ²¡æľī": 1838,
      "reat": 1839,
      "ational": 1840,
      "ç§°": 1841,
      "æ¨¡": 1842,
      "Ġel": 1843,
      ";čĊ": 1844,
      "atic": 1845,
      "{Ċ": 1846,
      "èĭ±": 1847,
      "è¯¥": 1848,
      "ollow": 1849,
      "èģĮ": 1850,
      "äº§åĵģ": 1851,
      "ray": 1852,
      "æħ": 1853,
      "Ġph": 1854,
      "ween": 1855,
      "ä¹Ĳ": 1856,
      "ä»Ĭ": 1857,
      ".\"Ċ": 1858,
      "æľīéĻĲ": 1859,
      "æīį": 1860,
      "åİ¿": 1861,
      "math": 1862,
      "Ġac": 1863,
      "ç½®": 1864,
      "olog": 1865,
      "æ¡Ī": 1866,
      "è¿Ľè¡Į": 1867,
      "ble": 1868,
      "åºĹ": 1869,
      "çĪ±": 1870,
      "ä»Ģ": 1871,
      "Ġstud": 1872,
      "Ġresult": 1873,
      "))": 1874,
      "ough": 1875,
      "ution": 1876,
      "Ġrem": 1877,
      "atch": 1878,
      "çİ¯": 1879,
      "ox": 1880,
      "ward": 1881,
      "æŀĦ": 1882,
      "itt": 1883,
      "Ġuse": 1884,
      "roup": 1885,
      "ms": 1886,
      "åıĪ": 1887,
      "cond": 1888,
      "çĬ": 1889,
      "ä½ķ": 1890,
      "Ġcould": 1891,
      "æŃ¥": 1892,
      "Pro": 1893,
      "ĠWe": 1894,
      "æĺĵ": 1895,
      "ons": 1896,
      "ments": 1897,
      "åĨĽ": 1898,
      "åĳ¨": 1899,
      "Ġused": 1900,
      "è¯Ŀ": 1901,
      "Ġbu": 1902,
      "ĉĉĉ": 1903,
      "äº¬": 1904,
      "eng": 1905,
      "åĪĹ": 1906,
      "ident": 1907,
      "che": 1908,
      "è¯Ń": 1909,
      "ä¼ĺ": 1910,
      "ank": 1911,
      "ç¢": 1912,
      "ä»ĭ": 1913,
      "é©¬": 1914,
      "Ġsign": 1915,
      "urre": 1916,
      "è»": 1917,
      "Ġjust": 1918,
      "ited": 1919,
      ".get": 1920,
      "æĬĬ": 1921,
      "ĠAr": 1922,
      "æĿĲ": 1923,
      "ä¿®": 1924,
      "çĹħ": 1925,
      "æĳ": 1926,
      "arch": 1927,
      "ues": 1928,
      "br": 1929,
      "ility": 1930,
      "uring": 1931,
      "Ġbetween": 1932,
      "Ġrequ": 1933,
      "é¢Ĩ": 1934,
      "å®ĥ": 1935,
      "read": 1936,
      "æļ": 1937,
      "åĳĬ": 1938,
      "Ġspec": 1939,
      "ning": 1940,
      "\">": 1941,
      "ced": 1942,
      "è¯ķ": 1943,
      "ST": 1944,
      "Ġconst": 1945,
      "}$": 1946,
      "åŃ¸": 1947,
      "Ġthrough": 1948,
      "Ġpol": 1949,
      "Ġself": 1950,
      "}\\": 1951,
      "å§ĭ": 1952,
      "æ¶Ī": 1953,
      "åĢĭ": 1954,
      "let": 1955,
      "ower": 1956,
      "Ġdet": 1957,
      "RE": 1958,
      "its": 1959,
      "è¿ŀ": 1960,
      "ç¬¬ä¸Ģ": 1961,
      "Ġbec": 1962,
      "Ġneed": 1963,
      "ious": 1964,
      "åºľ": 1965,
      "è§ģ": 1966,
      "å±ŀ": 1967,
      "æĲ": 1968,
      "AT": 1969,
      "ract": 1970,
      "å¢ĥ": 1971,
      "ible": 1972,
      "htt": 1973,
      "air": 1974,
      "èµĽ": 1975,
      "åĬ©": 1976,
      "Ġhow": 1977,
      "ash": 1978,
      "wn": 1979,
      "yn": 1980,
      "]Ċ": 1981,
      "this": 1982,
      "fore": 1983,
      "Ġdiffer": 1984,
      "è½¬": 1985,
      "éªĮ": 1986,
      "ç®Ģ": 1987,
      "éĢŁ": 1988,
      "son": 1989,
      "ym": 1990,
      "ĠĠĠĠĠĠĠĠĠ": 1991,
      "è®¤": 1992,
      "é£Ł": 1993,
      "right": 1994,
      "èĮĥ": 1995,
      "ethod": 1996,
      "ource": 1997,
      "è¶ħ": 1998,
      "of": 1999,
      "plic": 2000,
      "çŁ³": 2001,
      "Ġname": 2002,
      "key": 2003,
      "èĹ": 2004,
      "ĠCom": 2005,
      "Ġfollow": 2006,
      "Ġdid": 2007,
      "_d": 2008,
      "ople": 2009,
      "Ġloc": 2010,
      "åĦ¿": 2011,
      "other": 2012,
      "uth": 2013,
      ",\"": 2014,
      "...": 2015,
      "å°±æĺ¯": 2016,
      "æİ§": 2017,
      "åŃĺ": 2018,
      "Ġpar": 2019,
      "ĠSe": 2020,
      "ä¸»è¦ģ": 2021,
      "çĻ¾": 2022,
      "çİĩ": 2023,
      "çª": 2024,
      "æľīéĻĲåħ¬åı¸": 2025,
      "å¼ł": 2026,
      "åİĨ": 2027,
      "çĮ": 2028,
      "ood": 2029,
      "ute": 2030,
      "ures": 2031,
      "æ²³": 2032,
      "ily": 2033,
      "è®®": 2034,
      "å¤į": 2035,
      "Ġdist": 2036,
      ");ĊĊ": 2037,
      "Ġthese": 2038,
      "Ġshow": 2039,
      "ww": 2040,
      "Ġ*/Ċ": 2041,
      "Ġsm": 2042,
      "ä¿¡æģ¯": 2043,
      "import": 2044,
      "Ġplay": 2045,
      "åıį": 2046,
      "æł¹": 2047,
      "ities": 2048,
      "é¡¹çĽ®": 2049,
      "æ¬¾": 2050,
      "Re": 2051,
      "Ġent": 2052,
      "return": 2053,
      "ton": 2054,
      ".S": 2055,
      "ç®Ĺ": 2056,
      "led": 2057,
      "ta": 2058,
      "hen": 2059,
      "ä¾Ĩ": 2060,
      "æ©": 2061,
      "ç¿": 2062,
      "è¯Ħ": 2063,
      "è´£": 2064,
      "æĬ¤": 2065,
      "çīĮ": 2066,
      "Ġprodu": 2067,
      "Ġeff": 2068,
      "éĶĢ": 2069,
      "ined": 2070,
      "Name": 2071,
      "åį¡": 2072,
      "Ġfil": 2073,
      "-t": 2074,
      "-b": 2075,
      "æľª": 2076,
      "abel": 2077,
      "ä»Ģä¹Ī": 2078,
      "Ġsystem": 2079,
      "Ġagain": 2080,
      "å¼ķ": 2081,
      "åĨľ": 2082,
      "çĥŃ": 2083,
      "éĿĴ": 2084,
      "Ch": 2085,
      "ages": 2086,
      "irect": 2087,
      "Ġ`": 2088,
      "over": 2089,
      "Ġinv": 2090,
      "ä¹ł": 2091,
      "å®¤": 2092,
      "æĢĿ": 2093,
      "âĢ¦âĢ¦": 2094,
      "æķĻèĤ²": 2095,
      "Ġcall": 2096,
      "èİ·": 2097,
      "press": 2098,
      "amp": 2099,
      "è¨Ģ": 2100,
      "line": 2101,
      "Ġsur": 2102,
      "ç¼ĸ": 2103,
      "self": 2104,
      "åıĭ": 2105,
      "åĶ®": 2106,
      "åħļ": 2107,
      "åĪĴ": 2108,
      "Ġknow": 2109,
      "çĻ¼": 2110,
      "add": 2111,
      "çħ§": 2112,
      "Ġgener": 2113,
      "ale": 2114,
      "ä¾¿": 2115,
      "ç¯": 2116,
      "å¾Į": 2117,
      "Ġmost": 2118,
      "Ġshould": 2119,
      "Ġ,": 2120,
      "ĠPro": 2121,
      "-d": 2122,
      "çļĦä¸Ģ": 2123,
      "èĪĩ": 2124,
      "land": 2125,
      "åı²": 2126,
      "éĻħ": 2127,
      "Ġext": 2128,
      "åĳ½": 2129,
      "ç³»ç»Ł": 2130,
      "è®¾è®¡": 2131,
      "å·¥ç¨ĭ": 2132,
      "åĢ¼": 2133,
      "ature": 2134,
      "è§Ĥ": 2135,
      "éĢĻ": 2136,
      "Ġcre": 2137,
      "ider": 2138,
      "ample": 2139,
      "è¶Ĭ": 2140,
      "åį³": 2141,
      "AR": 2142,
      "Ġ=>": 2143,
      "(\\": 2144,
      "é¦Ļ": 2145,
      "Ġx": 2146,
      "ç·": 2147,
      "éĻ¤": 2148,
      "åĨ³": 2149,
      "ç»´": 2150,
      "Id": 2151,
      "Ġmem": 2152,
      "orn": 2153,
      "orld": 2154,
      "urrent": 2155,
      "Ġfl": 2156,
      "Con": 2157,
      "ames": 2158,
      "éŃ": 2159,
      "æĻ¯": 2160,
      "æİĴ": 2161,
      "](": 2162,
      "Ġsim": 2163,
      "ized": 2164,
      "ices": 2165,
      "min": 2166,
      "äºļ": 2167,
      "æµİ": 2168,
      "ä½ı": 2169,
      "å¤§åŃ¦": 2170,
      "It": 2171,
      "ser": 2172,
      "hat": 2173,
      "èµ°": 2174,
      "ä½İ": 2175,
      "Ġgr": 2176,
      "èĤ¡": 2177,
      "æĢģ": 2178,
      "EN": 2179,
      "ement": 2180,
      "éº": 2181,
      "tain": 2182,
      "Ġwell": 2183,
      ".d": 2184,
      "ince": 2185,
      "Ġinst": 2186,
      ".p": 2187,
      "è¾ĥ": 2188,
      "Ġ==": 2189,
      "è½½": 2190,
      "æĺ¯ä¸Ģ": 2191,
      "ç¡®": 2192,
      "ren": 2193,
      "åįĩ": 2194,
      "ife": 2195,
      "Ġsee": 2196,
      "....": 2197,
      "raph": 2198,
      "Ġvalue": 2199,
      "Cont": 2200,
      "ĠAl": 2201,
      "Ġtest": 2202,
      "Ġeach": 2203,
      "fo": 2204,
      "ins": 2205,
      "Type": 2206,
      "æıĲä¾Ľ": 2207,
      "ery": 2208,
      "åĥı": 2209,
      "ĠĠĠĠĠĠ": 2210,
      "ines": 2211,
      "div": 2212,
      ".s": 2213,
      "åĢĻ": 2214,
      "ä¸Ķ": 2215,
      "rol": 2216,
      "ä¹ī": 2217,
      "Ġlong": 2218,
      "ctions": 2219,
      "éĺ³": 2220,
      "åı¤": 2221,
      "å¹²": 2222,
      "åħŃ": 2223,
      "æĿĥ": 2224,
      "æµĭ": 2225,
      "Ġpeople": 2226,
      "Ġser": 2227,
      "Ġval": 2228,
      "çĶ·": 2229,
      "ah": 2230,
      "éĹ®é¢ĺ": 2231,
      "========": 2232,
      "Ġserv": 2233,
      "çº¦": 2234,
      "è¶³": 2235,
      "any": 2236,
      "uch": 2237,
      "uc": 2238,
      "åĽ½å®¶": 2239,
      "Ġusing": 2240,
      "Ġ!": 2241,
      "imes": 2242,
      "way": 2243,
      "ier": 2244,
      "éľĢè¦ģ": 2245,
      "è§Ĵ": 2246,
      "éħĴ": 2247,
      "çģ«": 2248,
      "********": 2249,
      "ãĢĤâĢĿ": 2250,
      "Ġchar": 2251,
      "è¯·": 2252,
      "Ġright": 2253,
      "ts": 2254,
      "Ġbr": 2255,
      "ond": 2256,
      "éķĩ": 2257,
      "åŁŁ": 2258,
      "?Ċ": 2259,
      "ID": 2260,
      "ä¾ĭ": 2261,
      "çº¢": 2262,
      "Ġhand": 2263,
      "Ġerr": 2264,
      "dd": 2265,
      "é¤": 2266,
      ".ĊĊ": 2267,
      "éĩĩ": 2268,
      "ody": 2269,
      "ever": 2270,
      "Ġcase": 2271,
      "Ġmin": 2272,
      "-s": 2273,
      "å¸Ĥåľº": 2274,
      "åĽŃ": 2275,
      "æ®µ": 2276,
      "Ġnumber": 2277,
      "OR": 2278,
      "yp": 2279,
      "åĨµ": 2280,
      "ting": 2281,
      "æĪı": 2282,
      "èĲ½": 2283,
      "åĩł": 2284,
      "ired": 2285,
      "Ġlook": 2286,
      ".m": 2287,
      "Ġwant": 2288,
      "ç§¯": 2289,
      "cri": 2290,
      "Ġnow": 2291,
      "è¯Ĩ": 2292,
      "ä¸Ńæĸĩ": 2293,
      "æ²¹": 2294,
      ".c": 2295,
      "èīº": 2296,
      "gan": 2297,
      "å®Ŀ": 2298,
      "æĿİ": 2299,
      "oun": 2300,
      "ç´ł": 2301,
      "ason": 2302,
      "ä¸ĸçķĮ": 2303,
      "æĶ¿åºľ": 2304,
      "LE": 2305,
      "ç¬¬äºĮ": 2306,
      "Ġhigh": 2307,
      "Ġfound": 2308,
      "è¿Ļä¸ª": 2309,
      "cept": 2310,
      "IT": 2311,
      "ole": 2312,
      "åĭķ": 2313,
      "ä»½": 2314,
      "az": 2315,
      "ense": 2316,
      "Ġbefore": 2317,
      "ric": 2318,
      "Com": 2319,
      "æ¥Ń": 2320,
      "Ġstart": 2321,
      "çĨ": 2322,
      "æĿ¿": 2323,
      "çĽĳ": 2324,
      "éĢļè¿ĩ": 2325,
      "çľ¼": 2326,
      "ful": 2327,
      "ä¸Ńå¿ĥ": 2328,
      "åľŁ": 2329,
      "å®ĺ": 2330,
      "å¿ħ": 2331,
      "ument": 2332,
      "ask": 2333,
      "å½ķ": 2334,
      "åħ»": 2335,
      "velop": 2336,
      "ner": 2337,
      "Ġpat": 2338,
      "man": 2339,
      "ç¦ı": 2340,
      "oci": 2341,
      ".,": 2342,
      "pp": 2343,
      "param": 2344,
      "ĠNew": 2345,
      "æĹı": 2346,
      "ared": 2347,
      "äººæ°ĳ": 2348,
      "Ġsecond": 2349,
      "text": 2350,
      "å¿Ĺ": 2351,
      "åĩºçīĪ": 2352,
      "Ã©": 2353,
      "val": 2354,
      "Ġyears": 2355,
      "Ġcor": 2356,
      "Ġmake": 2357,
      "_s": 2358,
      "è¼": 2359,
      "\":": 2360,
      "è±¡": 2361,
      "å¾®": 2362,
      "å»ºè®¾": 2363,
      "alse": 2364,
      "ĠAn": 2365,
      "Cl": 2366,
      ")$": 2367,
      "ault": 2368,
      "ars": 2369,
      "String": 2370,
      "ç¦»": 2371,
      "ek": 2372,
      "åĽ´": 2373,
      "Ġ</": 2374,
      "def": 2375,
      "Ġsame": 2376,
      "æĸĩåĮĸ": 2377,
      "Ġpoint": 2378,
      "ï¼īï¼Į": 2379,
      "_c": 2380,
      "ĠQ": 2381,
      "ä»ĸä»¬": 2382,
      "ĠÐ": 2383,
      "ml": 2384,
      "çĶŁæ´»": 2385,
      "ically": 2386,
      "ivers": 2387,
      "oh": 2388,
      "æľĽ": 2389,
      "çļĦäºº": 2390,
      "Ġvari": 2391,
      "èĩ´": 2392,
      "èŀ": 2393,
      "ision": 2394,
      "é¾Ļ": 2395,
      "Ġmade": 2396,
      "Ġdown": 2397,
      "å®īåħ¨": 2398,
      "æ£Ģ": 2399,
      "ç»Ń": 2400,
      "å°į": 2401,
      "Ġtype": 2402,
      "éĺ¿": 2403,
      "Ġbeing": 2404,
      "Ġbecause": 2405,
      "ç¤¾ä¼ļ": 2406,
      "ç»Ĩ": 2407,
      "].": 2408,
      "å©": 2409,
      "å·´": 2410,
      "ouse": 2411,
      "åĪĻ": 2412,
      "Ġevery": 2413,
      "èĳĹ": 2414,
      "ç»ıæµİ": 2415,
      "Ġeven": 2416,
      "åįı": 2417,
      "åįļ": 2418,
      "erson": 2419,
      "``": 2420,
      "çŃĸ": 2421,
      "å¦Ĥæŀľ": 2422,
      "éĽ»": 2423,
      "åĸľ": 2424,
      "æĻ®": 2425,
      "Ġway": 2426,
      "Res": 2427,
      "SE": 2428,
      "æĽ²": 2429,
      "AL": 2430,
      "åħ«": 2431,
      "ç»ĩ": 2432,
      "è¾¹": 2433,
      "ç½Ĺ": 2434,
      "_f": 2435,
      "ä½ľèĢħ": 2436,
      "Ġread": 2437,
      "Ġche": 2438,
      "Ġdec": 2439,
      "rivate": 2440,
      "æ¿": 2441,
      "Ġdifferent": 2442,
      "Ġwhile": 2443,
      "æ¸¯": 2444,
      "åī¯": 2445,
      "ĠSh": 2446,
      "els": 2447,
      "ten": 2448,
      "-c": 2449,
      "Ġprocess": 2450,
      "...Ċ": 2451,
      "è¯»": 2452,
      "çĵ": 2453,
      "éĢĤ": 2454,
      "æ¦": 2455,
      "æĺ¾": 2456,
      "æķħ": 2457,
      "é¢Ħ": 2458,
      "ather": 2459,
      "åĪĿ": 2460,
      "ĠFor": 2461,
      "formation": 2462,
      "æ´»åĬ¨": 2463,
      "çĩ": 2464,
      "èĴ": 2465,
      "ĠZ": 2466,
      "Ġgu": 2467,
      "æī¹": 2468,
      "oot": 2469,
      "æĭ¬": 2470,
      "Ġboth": 2471,
      "éļ¾": 2472,
      "å¾Ģ": 2473,
      "ee": 2474,
      "List": 2475,
      "essage": 2476,
      "è®¸": 2477,
      "æ¸©": 2478,
      "Ġelse": 2479,
      "ĉif": 2480,
      "ä»¥åıĬ": 2481,
      "Ġele": 2482,
      "Ġapp": 2483,
      ").Ċ": 2484,
      "AN": 2485,
      "Ġed": 2486,
      "äºĳ": 2487,
      "æŃĮ": 2488,
      "å£°": 2489,
      "ĠShe": 2490,
      "ern": 2491,
      "Ġoper": 2492,
      "çĬ¶": 2493,
      "Ġbel": 2494,
      "âĢĶâĢĶ": 2495,
      "aking": 2496,
      "ĠAs": 2497,
      "æ»¡": 2498,
      "åįĢ": 2499,
      "_p": 2500,
      "ä¾Ŀ": 2501,
      "ä»£è¡¨": 2502,
      "meric": 2503,
      "atus": 2504,
      "Ġmon": 2505,
      "ead": 2506,
      "_m": 2507,
      "æŀģ": 2508,
      "è§ī": 2509,
      "ik": 2510,
      "é»Ħ": 2511,
      "Ġcar": 2512,
      "ä¸ŃçļĦ": 2513,
      "åģ¥": 2514,
      "åº·": 2515,
      "Ġmany": 2516,
      "hip": 2517,
      "æĮī": 2518,
      "-f": 2519,
      "å±ħ": 2520,
      "æŃ¦": 2521,
      "å±Ĥ": 2522,
      "éĸĭ": 2523,
      "ception": 2524,
      "æī¿": 2525,
      "],": 2526,
      "ral": 2527,
      "ä¸ĥ": 2528,
      "æ½": 2529,
      "IG": 2530,
      "ule": 2531,
      "ey": 2532,
      "view": 2533,
      "Ġdoes": 2534,
      "åı¯èĥ½": 2535,
      "é»ĳ": 2536,
      "chool": 2537,
      "å¤±": 2538,
      "ç¸": 2539,
      "lp": 2540,
      "ists": 2541,
      "We": 2542,
      "Ġfact": 2543,
      "åĮħæĭ¬": 2544,
      "éģİ": 2545,
      "åħ¶ä»ĸ": 2546,
      "åĪĩ": 2547,
      "æĪĲç«ĭ": 2548,
      "æĩ": 2549,
      "åĩ»": 2550,
      "Ġvoid": 2551,
      "ä¸ĵä¸ļ": 2552,
      ")ĊĊ": 2553,
      "Ġhere": 2554,
      "æł¸": 2555,
      "Ġcent": 2556,
      "åĨħå®¹": 2557,
      "Ġpartic": 2558,
      "Ġfind": 2559,
      "ream": 2560,
      "åİĭ": 2561,
      "å¯Ĩ": 2562,
      "åĲĥ": 2563,
      "ants": 2564,
      "éļı": 2565,
      "ä¹Ŀ": 2566,
      "ä½ľåĵģ": 2567,
      "Ar": 2568,
      "Ġrun": 2569,
      "user": 2570,
      ".g": 2571,
      "ished": 2572,
      "å³": 2573,
      "alk": 2574,
      "è´Ł": 2575,
      "ĠTr": 2576,
      "æĻº": 2577,
      "ength": 2578,
      "Ġown": 2579,
      "åŁ¹": 2580,
      "ism": 2581,
      "Ġsol": 2582,
      "Ġrep": 2583,
      "çĶŁäº§": 2584,
      "åıĮ": 2585,
      "_b": 2586,
      "}{": 2587,
      "Ġline": 2588,
      "åĿĩ": 2589,
      "æ¤": 2590,
      "Ġgiv": 2591,
      "Ġpresent": 2592,
      "ified": 2593,
      "èį¯": 2594,
      "æĹħ": 2595,
      "Ġcount": 2596,
      "Ġcell": 2597,
      "ç¾¤": 2598,
      "Ġ>": 2599,
      "å°¼": 2600,
      ".l": 2601,
      "æ¸¸æĪı": 2602,
      "Ġmed": 2603,
      "-m": 2604,
      "Ġcour": 2605,
      "Ġvery": 2606,
      "æ©Ł": 2607,
      "Ġduring": 2608,
      "Ġmethod": 2609,
      "å¥ĸ": 2610,
      "},": 2611,
      "itle": 2612,
      "åĵį": 2613,
      "au": 2614,
      "ization": 2615,
      "frac": 2616,
      "Ġdon": 2617,
      "work": 2618,
      "è®¾å¤ĩ": 2619,
      "æĤ¨": 2620,
      "ponse": 2621,
      "_{\\": 2622,
      "ĠX": 2623,
      "comm": 2624,
      "Ġthree": 2625,
      "ä¼Ĺ": 2626,
      "ote": 2627,
      "æ¹ĸ": 2628,
      "åŃ©": 2629,
      "ters": 2630,
      "hes": 2631,
      "è¦ģæ±Ĥ": 2632,
      "æĽ¾": 2633,
      "egin": 2634,
      "éĻ©": 2635,
      "åħį": 2636,
      "ĠCon": 2637,
      "Ġdi": 2638,
      "çıŃ": 2639,
      "face": 2640,
      "æĸŃ": 2641,
      "ç§ĳæĬĢ": 2642,
      "ä¸įæĺ¯": 2643,
      "uss": 2644,
      "éĨ": 2645,
      "Ġfr": 2646,
      "ces": 2647,
      "æĹ©": 2648,
      "åĺ": 2649,
      "åºķ": 2650,
      "çį": 2651,
      "å¾ĭ": 2652,
      "ĠCl": 2653,
      "Ġlist": 2654,
      "Ġhead": 2655,
      "åŃ£": 2656,
      "ĠDe": 2657,
      "æĴŃ": 2658,
      "çĶ»": 2659,
      "Ġnull": 2660,
      "ateg": 2661,
      "ĠAnd": 2662,
      "**Ċ": 2663,
      "date": 2664,
      "æľ¨": 2665,
      "Ġlet": 2666,
      "Ð¾": 2667,
      "ĠEx": 2668,
      "ç»ľ": 2669,
      "cent": 2670,
      "ross": 2671,
      "ually": 2672,
      "Data": 2673,
      "Ġappro": 2674,
      "irc": 2675,
      "ify": 2676,
      "Ġear": 2677,
      "Ġsupport": 2678,
      "gram": 2679,
      "ãĢĢ": 2680,
      "Ġtrue": 2681,
      "_n": 2682,
      "Ġins": 2683,
      "çĳ": 2684,
      "æŀĲ": 2685,
      "Ġeffect": 2686,
      "å¿µ": 2687,
      "att": 2688,
      "Ġincre": 2689,
      "yl": 2690,
      "aj": 2691,
      "ane": 2692,
      "çİ©": 2693,
      "é¸": 2694,
      "Ġdevelop": 2695,
      "Ġstate": 2696,
      "Ġthose": 2697,
      "To": 2698,
      "éĢģ": 2699,
      "æŃ»": 2700,
      "ases": 2701,
      "Ġmet": 2702,
      "åĽłä¸º": 2703,
      "ght": 2704,
      "éķ·": 2705,
      "æĥħåĨµ": 2706,
      "äºĨä¸Ģ": 2707,
      "ets": 2708,
      "Ġimport": 2709,
      "Ġequ": 2710,
      "SS": 2711,
      "ality": 2712,
      "éĸĵ": 2713,
      "left": 2714,
      "åįĬ": 2715,
      "è´Ń": 2716,
      "ĠIf": 2717,
      "ron": 2718,
      "Ġz": 2719,
      "è¯¾": 2720,
      "ness": 2721,
      "ĠYou": 2722,
      "til": 2723,
      "åĮĹäº¬": 2724,
      "çı¾": 2725,
      "_l": 2726,
      "åī§": 2727,
      "Ġfam": 2728,
      "ä¸įåĲĮ": 2729,
      "ç»Ħç»ĩ": 2730,
      "CT": 2731,
      "ĠAmeric": 2732,
      "ç¶ĵ": 2733,
      "ved": 2734,
      "è¡Ģ": 2735,
      "play": 2736,
      "æ³¢": 2737,
      "Ġart": 2738,
      "roll": 2739,
      "åįĥ": 2740,
      "åį°": 2741,
      "Tr": 2742,
      "å¯Į": 2743,
      "equ": 2744,
      "éĥ¨åĪĨ": 2745,
      "æĺ¥": 2746,
      "Ġmain": 2747,
      "éĩįè¦ģ": 2748,
      "ä¸ŃæĸĩåĲį": 2749,
      "()Ċ": 2750,
      "Ġexper": 2751,
      "Ð°": 2752,
      "åĬ¿": 2753,
      "ĉreturn": 2754,
      "Ġest": 2755,
      "äººçļĦ": 2756,
      "Ġcap": 2757,
      "Ġopen": 2758,
      "Ġthink": 2759,
      "é²": 2760,
      "class": 2761,
      "çļ®": 2762,
      "çĻ»": 2763,
      "ele": 2764,
      "çķĻ": 2765,
      "ç»ıèĲ¥": 2766,
      "cal": 2767,
      "æ¬¢": 2768,
      "è«": 2769,
      "bl": 2770,
      "Ġperform": 2771,
      "Ġorder": 2772,
      "begin": 2773,
      "Ġgood": 2774,
      "Ġ)": 2775,
      "rr": 2776,
      "ger": 2777,
      "å¥ĩ": 2778,
      "ccess": 2779,
      "ĠĠĠĠĠĠĠĠĠĠĠĠĠĠĠĠĠĠĠĠĠĠĠ": 2780,
      "å¤«": 2781,
      "yle": 2782,
      "for": 2783,
      "fl": 2784,
      "idth": 2785,
      "ency": 2786,
      "çĽ¸åħ³": 2787,
      "requ": 2788,
      "çĸĹ": 2789,
      "å·²ç»ı": 2790,
      "Ġdisc": 2791,
      "åį«": 2792,
      "ected": 2793,
      "èŀį": 2794,
      "æī¾": 2795,
      "æĹ¶åĢĻ": 2796,
      "////": 2797,
      "Ġdirect": 2798,
      "Ġmuch": 2799,
      "new": 2800,
      "Ġpass": 2801,
      "Ġsom": 2802,
      "eter": 2803,
      "by": 2804,
      "åĨĻ": 2805,
      "Ġprovid": 2806,
      "Ġlast": 2807,
      "æīĢä»¥": 2808,
      "ively": 2809,
      "æĢİ": 2810,
      "æĸ¹å¼ı": 2811,
      "Ġfin": 2812,
      "Ġstring": 2813,
      "ional": 2814,
      "be": 2815,
      "çĽĬ": 2816,
      "Ġterm": 2817,
      "Ġhelp": 2818,
      "Ġdev": 2819,
      "Ġdep": 2820,
      "Ġet": 2821,
      "Ġlead": 2822,
      "åĲ«": 2823,
      "here": 2824,
      "indow": 2825,
      "alth": 2826,
      "éĢ²": 2827,
      "orth": 2828,
      "Ġbre": 2829,
      "med": 2830,
      "Ġav": 2831,
      "èĸ": 2832,
      "\">Ċ": 2833,
      "æĸ¹éĿ¢": 2834,
      "ä¹¡": 2835,
      "cont": 2836,
      "Ġmat": 2837,
      "æķ°æį®": 2838,
      "uff": 2839,
      "arget": 2840,
      "####": 2841,
      "åĽ½éĻħ": 2842,
      "é«Ķ": 2843,
      "åħħ": 2844,
      "æĭ©": 2845,
      "IS": 2846,
      "px": 2847,
      "ister": 2848,
      "amb": 2849,
      "IC": 2850,
      "ç»Ī": 2851,
      "åĳ³": 2852,
      "https": 2853,
      "æĸ¹æ³ķ": 2854,
      "chn": 2855,
      "čĊčĊ": 2856,
      "äº²": 2857,
      "Ġcurrent": 2858,
      "reg": 2859,
      "å¹³åı°": 2860,
      "\",Ċ": 2861,
      "ially": 2862,
      "ences": 2863,
      "ains": 2864,
      "Ġfile": 2865,
      "Ġ:-": 2866,
      "æŃ¢": 2867,
      "è»Ĭ": 2868,
      "Ġcr": 2869,
      "Ġsl": 2870,
      "è½¯": 2871,
      "Ġtri": 2872,
      "å¼Ģå§ĭ": 2873,
      "è¿ľ": 2874,
      "æĭĽ": 2875,
      "td": 2876,
      "å¤§å®¶": 2877,
      "($": 2878,
      "lear": 2879,
      "Ġanal": 2880,
      "ĠCol": 2881,
      "ott": 2882,
      "que": 2883,
      "åº§": 2884,
      "ä¹°": 2885,
      "oad": 2886,
      "ulation": 2887,
      "å®¡": 2888,
      "è´¢": 2889,
      "ä½Ĩæĺ¯": 2890,
      "ology": 2891,
      "èĭı": 2892,
      "rem": 2893,
      "eta": 2894,
      "load": 2895,
      "Ġgroup": 2896,
      ".h": 2897,
      "igned": 2898,
      "lex": 2899,
      "An": 2900,
      ".t": 2901,
      "ene": 2902,
      "åįķä½į": 2903,
      "string": 2904,
      "åĢĳ": 2905,
      "æ¯į": 2906,
      "arent": 2907,
      "Ġlevel": 2908,
      "å¥½çļĦ": 2909,
      "è½»": 2910,
      "å¸Į": 2911,
      "è´§": 2912,
      "åħ°": 2913,
      "Ġchild": 2914,
      "åĵ¡": 2915,
      "perty": 2916,
      "ived": 2917,
      "éĿŀå¸¸": 2918,
      "Col": 2919,
      "åł´": 2920,
      "vert": 2921,
      "åŃ¦çĶŁ": 2922,
      "iversity": 2923,
      "Ġstill": 2924,
      "ium": 2925,
      "è¡Ĺ": 2926,
      "Ġnon": 2927,
      "å¤§çļĦ": 2928,
      "ĠInd": 2929,
      "ç¥¨": 2930,
      "åħ´": 2931,
      "çİ¯å¢ĥ": 2932,
      "aving": 2933,
      "ina": 2934,
      "éĻį": 2935,
      "çł´": 2936,
      "raw": 2937,
      "ç´¢": 2938,
      "Ġagainst": 2939,
      "Ġelect": 2940,
      "äº«": 2941,
      "èĪ¬": 2942,
      "ural": 2943,
      "ä¹Łæĺ¯": 2944,
      "\")": 2945,
      "äºĴ": 2946,
      "ience": 2947,
      "åĪ°äºĨ": 2948,
      "Ġprivate": 2949,
      "è¿°": 2950,
      "ç½ĳç»ľ": 2951,
      "ç¬¬ä¸ī": 2952,
      "ission": 2953,
      "uthor": 2954,
      "Ġsmall": 2955,
      "itions": 2956,
      "çºª": 2957,
      ".j": 2958,
      "å¾Īå¤ļ": 2959,
      "ĠHow": 2960,
      "ä¸¾": 2961,
      "éĢīæĭ©": 2962,
      "è®Ń": 2963,
      "ember": 2964,
      "Ġposs": 2965,
      "AM": 2966,
      "version": 2967,
      "DE": 2968,
      "åĲ§": 2969,
      "çŃĳ": 2970,
      "åħ¶ä¸Ń": 2971,
      "Ġrece": 2972,
      "Ġinformation": 2973,
      "åŃ¦ä¹ł": 2974,
      "Ġaround": 2975,
      "Ġfollowing": 2976,
      "èĽ": 2977,
      "Ġbo": 2978,
      "As": 2979,
      "Ġfinal": 2980,
      "[@": 2981,
      "æĬķèµĦ": 2982,
      "Ðµ": 2983,
      "å®£": 2984,
      "åĸĦ": 2985,
      "not": 2986,
      "äººåĳĺ": 2987,
      "Ġrele": 2988,
      "outh": 2989,
      "Ġwithout": 2990,
      "å½©": 2991,
      "bs": 2992,
      "Ġsing": 2993,
      "ush": 2994,
      "çİ°åľ¨": 2995,
      "çĶ°": 2996,
      "å¤Ł": 2997,
      "ĠOn": 2998,
      "bject": 2999,
      "æ±ī": 3000,
      "Ġcontin": 3001,
      "duct": 3002,
      "åĲĮæĹ¶": 3003,
      "ven": 3004,
      "['": 3005,
      "?\"": 3006,
      "Ġ--": 3007,
      "Ġstruct": 3008,
      "åį´": 3009,
      "arm": 3010,
      "èĨ": 3011,
      "çŁ¥éģĵ": 3012,
      "è·Ł": 3013,
      "è¨Ń": 3014,
      "åħ§": 3015,
      "ording": 3016,
      "éĵ¶": 3017,
      "åĿĢ": 3018,
      "ration": 3019,
      "aining": 3020,
      "day": 3021,
      "Ġappe": 3022,
      "ital": 3023,
      "èĥ½åĬĽ": 3024,
      "uild": 3025,
      "åĲĪä½ľ": 3026,
      "éĵģ": 3027,
      "Ġke": 3028,
      "back": 3029,
      "äºī": 3030,
      "ä¸ĬçļĦ": 3031,
      "Ġbuild": 3032,
      "opy": 3033,
      "Ġreport": 3034,
      "____": 3035,
      "--------------------------------": 3036,
      "èĩªå·±çļĦ": 3037,
      "è¡Įä¸ļ": 3038,
      "_C": 3039,
      "AP": 3040,
      "ends": 3041,
      "Ġfield": 3042,
      "ior": 3043,
      "var": 3044,
      "åĪĨæŀĲ": 3045,
      "bers": 3046,
      "Ġtake": 3047,
      "umm": 3048,
      "ĠBut": 3049,
      "æ¥¼": 3050,
      "Ġtem": 3051,
      "ots": 3052,
      "odel": 3053,
      "struct": 3054,
      "ç¾İåĽ½": 3055,
      "less": 3056,
      "He": 3057,
      "åĬŁèĥ½": 3058,
      "ç¹": 3059,
      "å¼Ģåıĳ": 3060,
      "AC": 3061,
      "ç«¯": 3062,
      "uck": 3063,
      "åŁİå¸Ĥ": 3064,
      "Ġobject": 3065,
      "ç£": 3066,
      "ribut": 3067,
      "ä»¤": 3068,
      "crib": 3069,
      "åĵģçīĮ": 3070,
      "ä¸Ĭæµ·": 3071,
      "Ġmust": 3072,
      "Ġ!=": 3073,
      "çķ¥": 3074,
      "æĪĲä¸º": 3075,
      "åºı": 3076,
      "éĥ½æĺ¯": 3077,
      "acter": 3078,
      "label": 3079,
      "Ġopt": 3080,
      "æīĢæľī": 3081,
      "ients": 3082,
      "org": 3083,
      "Ġday": 3084,
      "ĠFr": 3085,
      "åŃ¦æł¡": 3086,
      "Ġref": 3087,
      "ĠIs": 3088,
      "col": 3089,
      "æľĿ": 3090,
      "RO": 3091,
      "come": 3092,
      "ION": 3093,
      "éĿ©": 3094,
      "ervice": 3095,
      "é¢ĳ": 3096,
      "Ġteam": 3097,
      "unc": 3098,
      "Ġ%": 3099,
      "ĠSc": 3100,
      "èĵ": 3101,
      "Ġallow": 3102,
      "Ġcontrol": 3103,
      "nl": 3104,
      "-p": 3105,
      "Ġwrit": 3106,
      "èī¯": 3107,
      "çªģ": 3108,
      "çļĦæĺ¯": 3109,
      "çĭ¬": 3110,
      "Ġmodel": 3111,
      "é¼": 3112,
      "Ġconsider": 3113,
      "Ġdr": 3114,
      "æ²Ļ": 3115,
      "ä»ħ": 3116,
      "è®²": 3117,
      "Ġarg": 3118,
      "rite": 3119,
      "åª": 3120,
      "Ġworld": 3121,
      "ç§ĳåŃ¦": 3122,
      "iness": 3123,
      "ç§»": 3124,
      "å¥Ĺ": 3125,
      "ler": 3126,
      "(t": 3127,
      "']": 3128,
      "éĹľ": 3129,
      "Ġu": 3130,
      "é£ŀ": 3131,
      "mber": 3132,
      "')": 3133,
      "Ġdel": 3134,
      "çłģ": 3135,
      "Ġtop": 3136,
      "uary": 3137,
      "å°ĩ": 3138,
      "ĠPh": 3139,
      "value": 3140,
      "ware": 3141,
      "itor": 3142,
      "Ġ///": 3143,
      "è¿ĺæĺ¯": 3144,
      "çķ¶": 3145,
      "å½±åĵį": 3146,
      "ords": 3147,
      "ives": 3148,
      "(Ċ": 3149,
      "åı¦": 3150,
      "arge": 3151,
      "Ġcommun": 3152,
      ",\\": 3153,
      "è¾ĵ": 3154,
      "æ´²": 3155,
      "This": 3156,
      "æĶ¯æĮģ": 3157,
      "Ġpop": 3158,
      "por": 3159,
      "file": 3160,
      "Ġincluding": 3161,
      "oss": 3162,
      "ĠRe": 3163,
      "ope": 3164,
      "opt": 3165,
      "ability": 3166,
      "url": 3167,
      "Ġmark": 3168,
      "Ġpres": 3169,
      "Ġfalse": 3170,
      "da": 3171,
      "Ġleft": 3172,
      "åİĤ": 3173,
      "å¯Ł": 3174,
      "Ġperson": 3175,
      "çº³": 3176,
      "\");Ċ": 3177,
      "ĠWh": 3178,
      "Ġsince": 3179,
      "Value": 3180,
      "Ġtry": 3181,
      "ination": 3182,
      "ĠLe": 3183,
      "å®³": 3184,
      "å·Ŀ": 3185,
      "ait": 3186,
      "ä½ľä¸º": 3187,
      "ury": 3188,
      "Ġvar": 3189,
      "Ġanother": 3190,
      "$,": 3191,
      "çĶ³": 3192,
      "æĵį": 3193,
      "Ġcond": 3194,
      "è¿Ļæł·": 3195,
      "åĲ¬": 3196,
      "On": 3197,
      "ĠString": 3198,
      "Ġpost": 3199,
      "æĻļ": 3200,
      "æĿĲæĸĻ": 3201,
      "åĵĪ": 3202,
      "Ð¸": 3203,
      "data": 3204,
      "èįī": 3205,
      "erg": 3206,
      "ĠPl": 3207,
      "ï¼İ": 3208,
      "å¾ħ": 3209,
      "Ġsize": 3210,
      "ought": 3211,
      "èĪª": 3212,
      "ç±»åŀĭ": 3213,
      "é¤Ĳ": 3214,
      "ird": 3215,
      "UL": 3216,
      "Ġstand": 3217,
      "rop": 3218,
      "vious": 3219,
      "urther": 3220,
      "',Ċ": 3221,
      "fe": 3222,
      "_id": 3223,
      "å»ºçŃĳ": 3224,
      "urs": 3225,
      "Ġsay": 3226,
      "æĹ¥æľ¬": 3227,
      "Ġexample": 3228,
      "clude": 3229,
      "å¨ģ": 3230,
      ".C": 3231,
      "Ġlife": 3232,
      "éĶĢåĶ®": 3233,
      "ache": 3234,
      "Ġpower": 3235,
      "Ġwithin": 3236,
      "åģľ": 3237,
      "æį¢": 3238,
      "ats": 3239,
      "Ġsk": 3240,
      "æľīä¸Ģ": 3241,
      "èŃ¦": 3242,
      "æī§": 3243,
      "akes": 3244,
      "ðŁ": 3245,
      "Ġplace": 3246,
      "\\Ċ": 3247,
      "Ġmult": 3248,
      "pha": 3249,
      "ivity": 3250,
      "æĭħ": 3251,
      "ems": 3252,
      "ately": 3253,
      "åŃ©åŃĲ": 3254,
      "åĵª": 3255,
      "èĹı": 3256,
      "è³ĩ": 3257,
      "ä¸¥": 3258,
      "é¦Ĩ": 3259,
      "Ġstatic": 3260,
      "Ġstudy": 3261,
      "ohn": 3262,
      "æłĩåĩĨ": 3263,
      "âĢĿãĢĤ": 3264,
      "Ġview": 3265,
      "åľ°åĮº": 3266,
      "rror": 3267,
      "Ġiss": 3268,
      "æ¾": 3269,
      "inter": 3270,
      "åħ¸": 3271,
      "è¯į": 3272,
      "åºĶçĶ¨": 3273,
      "etwork": 3274,
      "lection": 3275,
      "Ġaut": 3276,
      "Ġreal": 3277,
      "ubl": 3278,
      "Ġprogram": 3279,
      "Ġvis": 3280,
      "å¤ı": 3281,
      "æĿ¾": 3282,
      "ĠThey": 3283,
      "order": 3284,
      "Ġid": 3285,
      "ocument": 3286,
      "è¯¢": 3287,
      "çĶ¢": 3288,
      "Ġprot": 3289,
      "æ±½": 3290,
      "è¿ĻäºĽ": 3291,
      ".A": 3292,
      "çŁŃ": 3293,
      ")\\": 3294,
      "rm": 3295,
      "Ġgiven": 3296,
      "éĴ±": 3297,
      "Ġproble": 3298,
      "plication": 3299,
      "Ġfour": 3300,
      "å¯¦": 3301,
      "æİ§åĪ¶": 3302,
      "ai": 3303,
      "aterial": 3304,
      "å·®": 3305,
      "ained": 3306,
      "ured": 3307,
      "gg": 3308,
      "umn": 3309,
      "ä¸¦": 3310,
      "Ġcare": 3311,
      "æĿ±": 3312,
      "Ġkey": 3313,
      "Ġmov": 3314,
      "ç²ī": 3315,
      "ä½Ļ": 3316,
      "åŁºæľ¬": 3317,
      "_S": 3318,
      "action": 3319,
      "You": 3320,
      "é½": 3321,
      "éĻĦ": 3322,
      "Ġlim": 3323,
      "ret": 3324,
      "å®ģ": 3325,
      "åħ·æľī": 3326,
      "www": 3327,
      "ä¸įèĥ½": 3328,
      "itive": 3329,
      "><": 3330,
      "Ġturn": 3331,
      "().": 3332,
      ".f": 3333,
      "åĲ¸": 3334,
      "ç§Ģ": 3335,
      "Ġsw": 3336,
      "ava": 3337,
      "é»ŀ": 3338,
      "arn": 3339,
      "span": 3340,
      "Ġexpect": 3341,
      ");": 3342,
      "ential": 3343,
      "Ġbus": 3344,
      "ploy": 3345,
      "lob": 3346,
      "agn": 3347,
      "http": 3348,
      "å¸®": 3349,
      "éĥ¨éĹ¨": 3350,
      "de": 3351,
      "ape": 3352,
      "å¤ľ": 3353,
      "ES": 3354,
      "Ġsever": 3355,
      "ĉp": 3356,
      "æīĺ": 3357,
      "è¡ĮæĶ¿": 3358,
      "ety": 3359,
      "è´¨éĩı": 3360,
      "åŃ¦éĻ¢": 3361,
      "ĠAll": 3362,
      "_P": 3363,
      "Get": 3364,
      "ped": 3365,
      "Ġident": 3366,
      "ference": 3367,
      "åĲ¦": 3368,
      "aster": 3369,
      "æł¹æį®": 3370,
      "ayer": 3371,
      "AS": 3372,
      "å®ĮæĪĲ": 3373,
      "eq": 3374,
      "æ¿Ģ": 3375,
      "ĠComm": 3376,
      "aim": 3377,
      "ET": 3378,
      "aint": 3379,
      "ĠĠĠĠĠĠĠĠĠĠĠĠĠ": 3380,
      "UT": 3381,
      "è´Łè´£": 3382,
      "æĶ»": 3383,
      "éĻĪ": 3384,
      "Ġlater": 3385,
      "ley": 3386,
      "ised": 3387,
      "çĽĺ": 3388,
      "Ġbro": 3389,
      "ĠRes": 3390,
      "åĨ·": 3391,
      "æĪĳçļĦ": 3392,
      "reen": 3393,
      "èªª": 3394,
      "-l": 3395,
      "è¡¨ç¤º": 3396,
      "Ġparam": 3397,
      "æİĪ": 3398,
      "èĥĮ": 3399,
      "Ġconf": 3400,
      "ĠÂ": 3401,
      "Ġgoing": 3402,
      "istory": 3403,
      "enn": 3404,
      "Ġknown": 3405,
      "Ġve": 3406,
      "Ġtoo": 3407,
      "Ġnext": 3408,
      "Ġwom": 3409,
      "Ġlog": 3410,
      "çĽ®åīį": 3411,
      "Un": 3412,
      "vention": 3413,
      "èĮĥåĽ´": 3414,
      "èıľ": 3415,
      "ivid": 3416,
      "ĠNo": 3417,
      "ways": 3418,
      "Ġ**": 3419,
      "Ġport": 3420,
      "åħ¨åĽ½": 3421,
      "ager": 3422,
      "Par": 3423,
      "ittle": 3424,
      "ç»į": 3425,
      "idd": 3426,
      "Ġocc": 3427,
      "!Ċ": 3428,
      "ä¸´": 3429,
      "Im": 3430,
      "éĽ·": 3431,
      "Ġtra": 3432,
      "Ġask": 3433,
      "Ġexpl": 3434,
      "ç®Ģä»ĭ": 3435,
      "çģµ": 3436,
      "ĠMar": 3437,
      "Ġold": 3438,
      "pi": 3439,
      "Ġdem": 3440,
      "icro": 3441,
      "æ°¸": 3442,
      "ĠUniversity": 3443,
      "ç·ļ": 3444,
      "By": 3445,
      "Ġuser": 3446,
      "Ġlocal": 3447,
      "(s": 3448,
      "Ġchang": 3449,
      "iment": 3450,
      "iver": 3451,
      "ustom": 3452,
      "ctor": 3453,
      "æĦ¿": 3454,
      "ED": 3455,
      "ç¬ĳ": 3456,
      "åı¶": 3457,
      "èİ·å¾Ĺ": 3458,
      "ves": 3459,
      "ackage": 3460,
      "ification": 3461,
      "File": 3462,
      "åĭĻ": 3463,
      "ĠBl": 3464,
      "'Ċ": 3465,
      "Ġpath": 3466,
      "Ġdescrib": 3467,
      "çĿ£": 3468,
      "(f": 3469,
      "gr": 3470,
      "bo": 3471,
      "Ġbest": 3472,
      "éĶĻ": 3473,
      "Ġgover": 3474,
      "):Ċ": 3475,
      "ably": 3476,
      "ently": 3477,
      "æ¤į": 3478,
      "çĴ": 3479,
      "ended": 3480,
      "aces": 3481,
      "bb": 3482,
      "åĿļ": 3483,
      "å¤ĦçĲĨ": 3484,
      "åĲī": 3485,
      "ober": 3486,
      "çĪ¶": 3487,
      "åģĩ": 3488,
      "Ġbeh": 3489,
      "Ġ*Ċ": 3490,
      "Ġbased": 3491,
      "æľĭ": 3492,
      "Ġresults": 3493,
      "const": 3494,
      "Ġinit": 3495,
      "æĬĹ": 3496,
      "æľºæŀĦ": 3497,
      "Ġhome": 3498,
      "ograph": 3499,
      "åłĤ": 3500,
      "å¼Ĥ": 3501,
      "Ġexpress": 3502,
      "åĳ¢": 3503,
      "For": 3504,
      "Ġaddition": 3505,
      "äº¿": 3506,
      "Ġuntil": 3507,
      "è¡£": 3508,
      "èµĦæºĲ": 3509,
      "me": 3510,
      "ä¸ĢèĪ¬": 3511,
      "une": 3512,
      "Ġgreat": 3513,
      "å¦Ĥä½ķ": 3514,
      "åĪ»": 3515,
      "äº§ä¸ļ": 3516,
      "\\end": 3517,
      "_T": 3518,
      "Sh": 3519,
      "Ġ\\[": 3520,
      "Ġmeas": 3521,
      "cription": 3522,
      "æĢİä¹Ī": 3523,
      "ither": 3524,
      "åĩı": 3525,
      "å°½": 3526,
      "Ġtext": 3527,
      "éļľ": 3528,
      "é¡µ": 3529,
      "å§Ķåĳĺ": 3530,
      "ä¸ªäºº": 3531,
      "head": 3532,
      "abl": 3533,
      "ething": 3534,
      "Ġbook": 3535,
      "Ġwon": 3536,
      "å¾ģ": 3537,
      "å·¦": 3538,
      "Ġorig": 3539,
      "sw": 3540,
      "Ġadv": 3541,
      "æķ¸": 3542,
      "inc": 3543,
      "Ġ&&": 3544,
      "Ġlaw": 3545,
      "Ġweek": 3546,
      "ä»ĺ": 3547,
      "åŁºç¡": 3548,
      "ĠBr": 3549,
      "æĭ¿": 3550,
      "Ġlight": 3551,
      "è¡¥": 3552,
      "ung": 3553,
      "çĦ¡": 3554,
      "å²ģ": 3555,
      "ä¹ħ": 3556,
      "ä½³": 3557,
      "}(": 3558,
      "åŁºç¡Ģ": 3559,
      "Ġevent": 3560,
      "ĠOr": 3561,
      "Ġla": 3562,
      "code": 3563,
      "Ġcalled": 3564,
      "ä¼¤": 3565,
      "çĶµåŃĲ": 3566,
      "åıĳå¸ĥ": 3567,
      "é¡»": 3568,
      "åħµ": 3569,
      "Ġspe": 3570,
      "bar": 3571,
      "Object": 3572,
      "æıĲé«ĺ": 3573,
      "AD": 3574,
      "å¥¥": 3575,
      "mp": 3576,
      "é¥°": 3577,
      "thing": 3578,
      "ä»ĸçļĦ": 3579,
      "åįł": 3580,
      "iron": 3581,
      "æ¯Ľ": 3582,
      "off": 3583,
      "estion": 3584,
      "Ġerror": 3585,
      "urch": 3586,
      "Ð½": 3587,
      "ĠUnited": 3588,
      "ï½": 3589,
      "Ġfamily": 3590,
      "ĠAmerican": 3591,
      "å°Ħ": 3592,
      "æĭį": 3593,
      "èĤī": 3594,
      "Ġfew": 3595,
      "usic": 3596,
      "Ġschool": 3597,
      "Ġgl": 3598,
      "å°ıè¯´": 3599,
      "åĪĺ": 3600,
      "And": 3601,
      "âĪ": 3602,
      "mb": 3603,
      "Exception": 3604,
      "ç¯ĩ": 3605,
      "Set": 3606,
      "æ´¾": 3607,
      "åİĨåı²": 3608,
      ".set": 3609,
      "ä»·æł¼": 3610,
      "){": 3611,
      "Ġca": 3612,
      "ilar": 3613,
      "éĴŁ": 3614,
      "Ġtechn": 3615,
      "Ġhum": 3616,
      "/*": 3617,
      "Ġaff": 3618,
      "View": 3619,
      "åıĳçİ°": 3620,
      "uro": 3621,
      "item": 3622,
      "]{": 3623,
      "ift": 3624,
      "IP": 3625,
      "æĽ´å¤ļ": 3626,
      "Ġside": 3627,
      "Ġret": 3628,
      "my": 3629,
      "è¨Ī": 3630,
      "Ġposition": 3631,
      "HE": 3632,
      "ä¸Ģèµ·": 3633,
      "ĠSp": 3634,
      "ump": 3635,
      "ä¼¼": 3636,
      "lected": 3637,
      "\\begin": 3638,
      "../": 3639,
      "ĠEng": 3640,
      "used": 3641,
      "æľĭåıĭ": 3642,
      "ç«¥": 3643,
      "èĩªçĦ¶": 3644,
      "æłĳ": 3645,
      "Ġnever": 3646,
      "éģĩ": 3647,
      "éĴ¢": 3648,
      "è¿ĩç¨ĭ": 3649,
      "ÑĤ": 3650,
      "Ġhtt": 3651,
      "é¢Ŀ": 3652,
      "çĶ²": 3653,
      "ä»¥ä¸Ĭ": 3654,
      "æ´Ĺ": 3655,
      "æŀ¶": 3656,
      "åı³": 3657,
      "é¹": 3658,
      "å¯¹äºİ": 3659,
      "ç©¿": 3660,
      "ç³»åĪĹ": 3661,
      "Ġtyp": 3662,
      "ternal": 3663,
      "aps": 3664,
      "åĽłæŃ¤": 3665,
      "ĠAd": 3666,
      "çµĲ": 3667,
      "Ġvol": 3668,
      "Al": 3669,
      "ĠThere": 3670,
      "rist": 3671,
      "éĢĢ": 3672,
      "'m": 3673,
      "nment": 3674,
      "$\\": 3675,
      "Ġarea": 3676,
      "ball": 3677,
      "éĽ¶": 3678,
      "Ġant": 3679,
      "pond": 3680,
      "Ġmight": 3681,
      "Ġwater": 3682,
      "çŃĶ": 3683,
      "html": 3684,
      "rel": 3685,
      "ysis": 3686,
      "ç»§": 3687,
      "ĠUS": 3688,
      "Ġorgan": 3689,
      "iod": 3690,
      "mm": 3691,
      "åĩºçīĪç¤¾": 3692,
      "rc": 3693,
      "Error": 3694,
      "ç»Ŀ": 3695,
      "Ġproject": 3696,
      "çĪ¾": 3697,
      "Ġstep": 3698,
      "éģ¸": 3699,
      "alpha": 3700,
      "èĮ¶": 3701,
      "ailable": 3702,
      "Ġdeterm": 3703,
      "ume": 3704,
      "èĺ": 3705,
      "))Ċ": 3706,
      "uration": 3707,
      "bf": 3708,
      "ä»ĭç»į": 3709,
      "åħ¬éĩĮ": 3710,
      "stand": 3711,
      "åģ¥åº·": 3712,
      "ÑĢ": 3713,
      "ples": 3714,
      "çĶ¨æĪ·": 3715,
      "uit": 3716,
      "çİī": 3717,
      "æ¯Ĵ": 3718,
      "åºŃ": 3719,
      "ç¨®": 3720,
      "è¾ĳ": 3721,
      "ession": 3722,
      "è¯¦": 3723,
      "èĻŁ": 3724,
      "èĭ¥": 3725,
      "angu": 3726,
      ".n": 3727,
      "Ġredu": 3728,
      "Ġabove": 3729,
      "):": 3730,
      "cript": 3731,
      "co": 3732,
      "ä¸ĢäºĽ": 3733,
      "Ġhapp": 3734,
      "Ġgot": 3735,
      "icle": 3736,
      "ç»¿": 3737,
      "æİ¢": 3738,
      "çīĽ": 3739,
      "ffic": 3740,
      "$.": 3741,
      "iter": 3742,
      "æĿ¥çļĦ": 3743,
      "æĪĸèĢħ": 3744,
      "));Ċ": 3745,
      "ored": 3746,
      "å®Ĺ": 3747,
      "ground": 3748,
      "å´": 3749,
      "Ġsignific": 3750,
      "ending": 3751,
      "ouble": 3752,
      "Ġrespect": 3753,
      "Ġput": 3754,
      "å¹´çļĦ": 3755,
      "åĲįç§°": 3756,
      "ä¸°": 3757,
      "ä¼Ĭ": 3758,
      "Ġinterest": 3759,
      "éĽ¨": 3760,
      "æ¦Ĥ": 3761,
      "ĠAt": 3762,
      "åºĵ": 3763,
      "æ¬§": 3764,
      "åľ°æĸ¹": 3765,
      "ç»¼": 3766,
      "type": 3767,
      "Ġcal": 3768,
      "Ġleg": 3769,
      "Ġalong": 3770,
      "å®ŀçİ°": 3771,
      "å¡Ķ": 3772,
      "åĲĹ": 3773,
      "èĥ½å¤Ł": 3774,
      "å±Ĭ": 3775,
      "Ġ?": 3776,
      "Ġdate": 3777,
      "ä¸½": 3778,
      "En": 3779,
      "å©ļ": 3780,
      "ä½ľçĶ¨": 3781,
      "åĿĹ": 3782,
      "uf": 3783,
      "ç»ĵæŀĦ": 3784,
      "é¦Ļæ¸¯": 3785,
      "Ġes": 3786,
      "Ġcirc": 3787,
      "äº®": 3788,
      "çĽŁ": 3789,
      "Ind": 3790,
      "èģļ": 3791,
      "è¿½": 3792,
      "'re": 3793,
      "éĮ": 3794,
      "include": 3795,
      "ç»ĥ": 3796,
      "plement": 3797,
      "å¤®": 3798,
      "Ġeng": 3799,
      "Ġlarge": 3800,
      "Ġchange": 3801,
      "Ġgame": 3802,
      "ĠHowever": 3803,
      "idence": 3804,
      "sub": 3805,
      "ç´§": 3806,
      "å®Ī": 3807,
      "Ġcheck": 3808,
      "Ġstat": 3809,
      "ĠĠĊ": 3810,
      "Ġnum": 3811,
      "Se": 3812,
      "åıĥ": 3813,
      "Ġproduct": 3814,
      "æŁĵ": 3815,
      "æĶ¿çŃĸ": 3816,
      "åĽº": 3817,
      "æĢ¥": 3818,
      "æ¯Ķè¾ĥ": 3819,
      "Ġsomething": 3820,
      "****************": 3821,
      "å¸Ń": 3822,
      "ris": 3823,
      "åĨł": 3824,
      "cer": 3825,
      "Ġrepresent": 3826,
      "ails": 3827,
      "Int": 3828,
      "åºĬ": 3829,
      "éĹ»": 3830,
      "_M": 3831,
      "++": 3832,
      "ĠMay": 3833,
      "Ġless": 3834,
      "But": 3835,
      "IM": 3836,
      "pose": 3837,
      "ä¿ĿæĬ¤": 3838,
      "posed": 3839,
      "Ġassoci": 3840,
      "å¸Ŀ": 3841,
      "></": 3842,
      "search": 3843,
      "äºĨè§£": 3844,
      "æŁĲ": 3845,
      "åĩºçİ°": 3846,
      "ling": 3847,
      "éĺħ": 3848,
      "Ġsingle": 3849,
      "åĨĮ": 3850,
      "itch": 3851,
      "ajor": 3852,
      "ä¹ĭåĲİ": 3853,
      "æ¶²": 3854,
      "æĩī": 3855,
      "çļĦæĹ¶åĢĻ": 3856,
      "ances": 3857,
      "Pl": 3858,
      "åıĤèĢĥ": 3859,
      "util": 3860,
      "éħĴåºĹ": 3861,
      "Ġmean": 3862,
      "Ġeas": 3863,
      "åºĨ": 3864,
      "_st": 3865,
      "çĸ«": 3866,
      "éĤĦ": 3867,
      "issue": 3868,
      "Ġlittle": 3869,
      "Ġhaving": 3870,
      "inks": 3871,
      "Ġmonth": 3872,
      ".b": 3873,
      "è»į": 3874,
      "Ġclos": 3875,
      "ertain": 3876,
      "è¯Ĺ": 3877,
      "Key": 3878,
      "OT": 3879,
      "è®¡åĪĴ": 3880,
      "è½¯ä»¶": 3881,
      "aut": 3882,
      "å°ģ": 3883,
      "æ§": 3884,
      "é±": 3885,
      "Ġnear": 3886,
      "ambda": 3887,
      "iff": 3888,
      "ules": 3889,
      "ered": 3890,
      "ĠJohn": 3891,
      "åĵ¥": 3892,
      "UR": 3893,
      "Ġ:=": 3894,
      "-g": 3895,
      "Ġrequest": 3896,
      "using": 3897,
      "è´µ": 3898,
      "å¼Ģå±ķ": 3899,
      "ç¶²": 3900,
      "èĢĮä¸Ķ": 3901,
      "åªĴ": 3902,
      "èīºæľ¯": 3903,
      "Ġparticular": 3904,
      "çĮ®": 3905,
      "éĩİ": 3906,
      "ĠTo": 3907,
      "æ¢¦": 3908,
      "çĽ´æİ¥": 3909,
      "-w": 3910,
      "åıĤåĬł": 3911,
      "ention": 3912,
      "éħ¸": 3913,
      "Ñģ": 3914,
      "epend": 3915,
      "å·¥ä¸ļ": 3916,
      "Ġgrow": 3917,
      "æĪ°": 3918,
      "åĪļ": 3919,
      "åĪĽæĸ°": 3920,
      "Ġrest": 3921,
      "Ġlow": 3922,
      "ä¸Ģå®ļ": 3923,
      ".D": 3924,
      "Text": 3925,
      "ĠSystem": 3926,
      "yd": 3927,
      "Ġcode": 3928,
      "Ġbas": 3929,
      "Ġshown": 3930,
      "Ġtot": 3931,
      "._": 3932,
      "pert": 3933,
      "çĶµå½±": 3934,
      "Ġcharacter": 3935,
      "éĢı": 3936,
      "ormal": 3937,
      "Ġseveral": 3938,
      "})": 3939,
      "æ¯ķ": 3940,
      "Ġbody": 3941,
      "iles": 3942,
      "çļĩ": 3943,
      "af": 3944,
      "Qu": 3945,
      "ĠSo": 3946,
      "è¿ĲåĬ¨": 3947,
      "Ġdesign": 3948,
      "ering": 3949,
      "ries": 3950,
      "ä¸ļåĬ¡": 3951,
      "^{\\": 3952,
      "ides": 3953,
      "Ġreally": 3954,
      "void": 3955,
      "å®¢æĪ·": 3956,
      "AB": 3957,
      "ç½ĳç«Ļ": 3958,
      "lement": 3959,
      "å°ļ": 3960,
      "acy": 3961,
      "æĸĹ": 3962,
      "æ´Ľ": 3963,
      "Ġinvest": 3964,
      "ĠCar": 3965,
      "ards": 3966,
      "Ġfree": 3967,
      "Ġcome": 3968,
      "åĶ±": 3969,
      "mathcal": 3970,
      "äº¤éĢļ": 3971,
      "Ġleast": 3972,
      "æ£®": 3973,
      "éŃĶ": 3974,
      "ried": 3975,
      "Ġprof": 3976,
      "å¦Ī": 3977,
      "æĹ¥æľŁ": 3978,
      "éĽª": 3979,
      "Ġprom": 3980,
      "log": 3981,
      "æĵįä½ľ": 3982,
      "ued": 3983,
      "ĠGr": 3984,
      "CR": 3985,
      "ux": 3986,
      "Ð¾Ð": 3987,
      "åİħ": 3988,
      "rict": 3989,
      "Ġann": 3990,
      "Ã¡": 3991,
      "Ġemb": 3992,
      "Ġhig": 3993,
      "éĽĨåĽ¢": 3994,
      "US": 3995,
      "åĮ»éĻ¢": 3996,
      "éĻĨ": 3997,
      "ithub": 3998,
      "éĤ£ä¹Ī": 3999,
      "Ġey": 4000,
      "ç¨İ": 4001,
      "Ġgen": 4002,
      "åĴ¨": 4003,
      "æķ£": 4004,
      "ocal": 4005,
      "Ġexp": 4006,
      "Ġaccess": 4007,
      "Ġoffic": 4008,
      "ä½Ľ": 4009,
      "Ġdidn": 4010,
      "Ġsignificant": 4011,
      "èľ": 4012,
      "aced": 4013,
      "Ġdue": 4014,
      ".M": 4015,
      "Ġsuccess": 4016,
      "ho": 4017,
      "åĸľæ¬¢": 4018,
      "Ġimportant": 4019,
      "oice": 4020,
      "Ġobtain": 4021,
      "Ġmen": 4022,
      "åıĳçĶŁ": 4023,
      "æķĳ": 4024,
      "å²Ľ": 4025,
      "Ġrecord": 4026,
      "Ġrad": 4027,
      "æķĻåŃ¦": 4028,
      "=\\": 4029,
      "Ġide": 4030,
      "ä¸ºäºĨ": 4031,
      "Ġmove": 4032,
      "åħ³ç³»": 4033,
      "Requ": 4034,
      "èģĮä¸ļ": 4035,
      "ç¨³": 4036,
      "loat": 4037,
      "Ġhard": 4038,
      "Ġconn": 4039,
      "ension": 4040,
      "serv": 4041,
      "Time": 4042,
      "ĠPr": 4043,
      "åħ©": 4044,
      "ä¸ĢçĽ´": 4045,
      "çŃ¾": 4046,
      "åħ³äºİ": 4047,
      "åįĪ": 4048,
      "ĠStates": 4049,
      "Ġcreate": 4050,
      "Ġfilm": 4051,
      "å¸ĮæľĽ": 4052,
      "æ¢°": 4053,
      "Ġ/**Ċ": 4054,
      "Ġsit": 4055,
      "AG": 4056,
      "æĭ¥": 4057,
      "ches": 4058,
      "OM": 4059,
      "èĶ": 4060,
      "è¿Ļç§į": 4061,
      "eters": 4062,
      "åĬ³": 4063,
      "Ġindic": 4064,
      "Ġaway": 4065,
      "Ġinclude": 4066,
      "ä¸įä¼ļ": 4067,
      "Ġblock": 4068,
      "ä»ª": 4069,
      "Ġ[@": 4070,
      "index": 4071,
      "LO": 4072,
      "Ġbetter": 4073,
      "éģĭ": 4074,
      "éĽĦ": 4075,
      "èĦĳ": 4076,
      "ocial": 4077,
      "empt": 4078,
      "Ġservice": 4079,
      "Ġconfig": 4080,
      "è³½": 4081,
      "ä¹ĭä¸Ģ": 4082,
      "(p": 4083,
      "æĿĢ": 4084,
      "æ³°": 4085,
      "elta": 4086,
      "ready": 4087,
      "ä½łçļĦ": 4088,
      "è¿ĺæľī": 4089,
      "å³°": 4090,
      "è´£ä»»": 4091,
      "stru": 4092,
      "è§Ħå®ļ": 4093,
      "viron": 4094,
      "Ġmot": 4095,
      "ĠBe": 4096,
      "gin": 4097,
      "è·Ŀ": 4098,
      "ams": 4099,
      "ummary": 4100,
      "Ġseason": 4101,
      "Ġversion": 4102,
      "Ġtarget": 4103,
      "Ġinput": 4104,
      "èį£": 4105,
      "éĶ®": 4106,
      "alf": 4107,
      "è¿İ": 4108,
      "é¡º": 4109,
      "è½®": 4110,
      "apt": 4111,
      "é±¼": 4112,
      "Ġhold": 4113,
      "Ġfore": 4114,
      "Ġshort": 4115,
      "-type": 4116,
      "Ġpossible": 4117,
      "æĥł": 4118,
      "çŁ¥è¯Ĩ": 4119,
      "ibr": 4120,
      "âĢĺ": 4121,
      "ä¿ĥ": 4122,
      "è¿Ļä¸Ģ": 4123,
      "Ġmaterial": 4124,
      "æ´ĭ": 4125,
      "èĪŀ": 4126,
      "Ġbusiness": 4127,
      "Ġcells": 4128,
      "........": 4129,
      "unt": 4130,
      "icense": 4131,
      "ç®±": 4132,
      "æľīåħ³": 4133,
      "ä»į": 4134,
      "Ġbreak": 4135,
      "Ġpatients": 4136,
      "çĶ±äºİ": 4137,
      "ply": 4138,
      "ources": 4139,
      "æĤ£": 4140,
      "_i": 4141,
      "äºŀ": 4142,
      "iving": 4143,
      "æ¨¡å¼ı": 4144,
      "Ġhealth": 4145,
      "leg": 4146,
      "Test": 4147,
      "æĪĲåĬŁ": 4148,
      "ales": 4149,
      "================": 4150,
      "åĪ©çĶ¨": 4151,
      "Or": 4152,
      "èĻ½": 4153,
      "Ġavailable": 4154,
      "Ġpot": 4155,
      "yt": 4156,
      "å»ºç«ĭ": 4157,
      "Ġthought": 4158,
      "```": 4159,
      "Ġfail": 4160,
      "\\]": 4161,
      "Ġair": 4162,
      "ript": 4163,
      "åķĬ": 4164,
      "_F": 4165,
      "åĨ²": 4166,
      "Ġfull": 4167,
      "iction": 4168,
      "åį·": 4169,
      "æ±½è½¦": 4170,
      "Ġpo": 4171,
      "åĴ¨è¯¢": 4172,
      "ç²¾ç¥ŀ": 4173,
      "rix": 4174,
      "ï¿": 4175,
      "æķĪæŀľ": 4176,
      "isk": 4177,
      "çµ±": 4178,
      "_\\": 4179,
      "åŃĺåľ¨": 4180,
      "ĠÎ": 4181,
      "åł±": 4182,
      "éĵ¾": 4183,
      "sec": 4184,
      "ç«ŀ": 4185,
      "ables": 4186,
      "æīĭæľº": 4187,
      "ĠPar": 4188,
      "çīĻ": 4189,
      "å»¶": 4190,
      "Ġalways": 4191,
      "ategory": 4192,
      "ands": 4193,
      "OS": 4194,
      "åľ°åĿĢ": 4195,
      "Ġmar": 4196,
      "print": 4197,
      "ç¬¬åįģ": 4198,
      "ç¤¼": 4199,
      "error": 4200,
      "II": 4201,
      "éĿł": 4202,
      "ä¼ļè®®": 4203,
      "Ġtreat": 4204,
      "---": 4205,
      "odes": 4206,
      "ING": 4207,
      "Ġkeep": 4208,
      "Ġfeel": 4209,
      "ĠCan": 4210,
      "ribute": 4211,
      "å¾ŀ": 4212,
      "èĥľ": 4213,
      "irt": 4214,
      "ae": 4215,
      "ique": 4216,
      "(m": 4217,
      "(x": 4218,
      "),Ċ": 4219,
      "rec": 4220,
      "ĠĠĠĠĠĠĠĠĠĠĠĠĠĠĠĠĠĠĠĠĠĠĠĠĠĠĠĠĠĠĠĠĠĠĠĠĠĠĠĠĠĠĠĠĠĠĠĠĠĠĠĠĠĠĠĠĠĠĠĠĠĠĠĠ": 4221,
      "aring": 4222,
      "è°¢": 4223,
      "æģ©": 4224,
      "Ġimage": 4225,
      "Ġvalues": 4226,
      "ĠCent": 4227,
      "ä¼ĳ": 4228,
      "ç»¼åĲĪ": 4229,
      "åĲ¯": 4230,
      "éľ²": 4231,
      "ĠAss": 4232,
      "éĩĩçĶ¨": 4233,
      "Ġinc": 4234,
      "Ġmax": 4235,
      "\")Ċ": 4236,
      "è®¡ç®Ĺ": 4237,
      "Ġcourt": 4238,
      "å¢ŀåĬł": 4239,
      "æ²Ĵ": 4240,
      "uly": 4241,
      "ourn": 4242,
      "Ġprevious": 4243,
      "aper": 4244,
      "çģ£": 4245,
      "åŁ¹è®Ń": 4246,
      "Ġcomb": 4247,
      "If": 4248,
      "illion": 4249,
      "amma": 4250,
      "Ġmeans": 4251,
      "Ġtook": 4252,
      "æ¡¥": 4253,
      "Ph": 4254,
      "Ġfurther": 4255,
      "atures": 4256,
      "ä¸Ŀ": 4257,
      "éĴĪ": 4258,
      "side": 4259,
      "Ġprob": 4260,
      "æĶ¿æ²»": 4261,
      "ternational": 4262,
      "ãĢģãĢĬ": 4263,
      "PE": 4264,
      "ĠWhen": 4265,
      "UN": 4266,
      "#include": 4267,
      "éľĢæ±Ĥ": 4268,
      "atter": 4269,
      "ï½ŀ": 4270,
      "Ġsource": 4271,
      "wards": 4272,
      "_in": 4273,
      "Ġrange": 4274,
      "olution": 4275,
      "No": 4276,
      "æıĲåįĩ": 4277,
      "éĿ¢ç§¯": 4278,
      "ories": 4279,
      "ĠFe": 4280,
      "çľĭåĪ°": 4281,
      "Ġdays": 4282,
      "Ġthings": 4283,
      "imal": 4284,
      "ours": 4285,
      "Ġwar": 4286,
      "Ġprovide": 4287,
      ");čĊ": 4288,
      "Ġclear": 4289,
      "Ġpress": 4290,
      "(self": 4291,
      "äººåı£": 4292,
      "Ġchildren": 4293,
      "ney": 4294,
      "Ġresponse": 4295,
      "Ġclaim": 4296,
      "åĶĲ": 4297,
      "\";Ċ": 4298,
      "èµ·æĿ¥": 4299,
      "åı«": 4300,
      "Ġsimilar": 4301,
      "ideo": 4302,
      "åĸ®": 4303,
      "ç¼º": 4304,
      "åĲĦç§į": 4305,
      "è¸": 4306,
      "ç¬¬åĽĽ": 4307,
      "Ref": 4308,
      "What": 4309,
      "éĽħ": 4310,
      "ç§ĭ": 4311,
      "åĿĲ": 4312,
      "ç¸½": 4313,
      "Info": 4314,
      ".org": 4315,
      "ä¸ĩåħĥ": 4316,
      "Ġimpro": 4317,
      "å±ĭ": 4318,
      "è¯ī": 4319,
      "éĸĢ": 4320,
      "anguage": 4321,
      "ĠSup": 4322,
      "ison": 4323,
      "With": 4324,
      "Ġeither": 4325,
      "ĠĠĠĠĠĠĠĠĠĠĠĠ": 4326,
      "ç§ĺ": 4327,
      "Ġseries": 4328,
      "Ġfri": 4329,
      "State": 4330,
      "å®ľ": 4331,
      "];Ċ": 4332,
      "FF": 4333,
      "åį±": 4334,
      "Is": 4335,
      "-in": 4336,
      "ç¬Ķ": 4337,
      "ĊĊĊ": 4338,
      "ony": 4339,
      "é¢Ĩå¯¼": 4340,
      "éĿĻ": 4341,
      "ä¸ĢæŃ¥": 4342,
      "All": 4343,
      "Ġcommon": 4344,
      "though": 4345,
      "Ġtimes": 4346,
      "å®ŀæĸ½": 4347,
      "ĠState": 4348,
      "ĠAp": 4349,
      ".w": 4350,
      "é¡¾": 4351,
      "IL": 4352,
      "Ġgeneral": 4353,
      "Path": 4354,
      "annel": 4355,
      "ĠMan": 4356,
      "åĨ°": 4357,
      "Ġdevice": 4358,
      "nection": 4359,
      "ilt": 4360,
      "ividual": 4361,
      "èģ¯": 4362,
      "ä»¥ä¸ĭ": 4363,
      "oken": 4364,
      "?\"Ċ": 4365,
      "æĸ°çļĦ": 4366,
      "æ³¨æĦı": 4367,
      "Ġoutput": 4368,
      "-h": 4369,
      "ä¹İ": 4370,
      "(d": 4371,
      "lobal": 4372,
      "Config": 4373,
      "éļĬ": 4374,
      "ä¸Ńå¤®": 4375,
      "ENT": 4376,
      "Ġ||": 4377,
      "èĴĻ": 4378,
      "Ġcover": 4379,
      "](#": 4380,
      "æ¨Ĥ": 4381,
      "Ġexist": 4382,
      "åĪ¤": 4383,
      "Ġmajor": 4384,
      "ival": 4385,
      "ä½įäºİ": 4386,
      "æľīæķĪ": 4387,
      "Ġnetwork": 4388,
      "igure": 4389,
      "Ġperiod": 4390,
      "ç¬¦": 4391,
      "Ġinvol": 4392,
      "\\n": 4393,
      "æĸĩä»¶": 4394,
      "Ġprint": 4395,
      "Ġtotal": 4396,
      "pace": 4397,
      "plied": 4398,
      "é¦¬": 4399,
      "æĹħæ¸¸": 4400,
      "ĠJan": 4401,
      "æ··": 4402,
      "çĶļ": 4403,
      "Ġhouse": 4404,
      "Ġbi": 4405,
      "è®¯": 4406,
      "cd": 4407,
      "è§£åĨ³": 4408,
      "Ġspace": 4409,
      "Ġproblem": 4410,
      "ync": 4411,
      "Ġthrow": 4412,
      "æĿ¨": 4413,
      "ĠYork": 4414,
      "åĽ½åĨħ": 4415,
      "ĠIN": 4416,
      "ĠĠĠĠĠĠĠĠĠĠĠĠĠĠĠĠĠĠĠĠĠĠĠĠĠĠĠ": 4417,
      "çµĦ": 4418,
      "define": 4419,
      "è¿Ľåħ¥": 4420,
      "ched": 4421,
      "åĪ¶ä½ľ": 4422,
      "Ġ{čĊ": 4423,
      "amed": 4424,
      "ä¸Ģæ¬¡": 4425,
      "ieve": 4426,
      "lease": 4427,
      "åľ£": 4428,
      "ç¡¬": 4429,
      "na": 4430,
      "Ġprote": 4431,
      "ĠWorld": 4432,
      "æľ«": 4433,
      "Ġinvention": 4434,
      "è©²": 4435,
      "uk": 4436,
      "ç±į": 4437,
      "è¦ĸ": 4438,
      "ags": 4439,
      "çĳŀ": 4440,
      "éĬ": 4441,
      "aged": 4442,
      "èĽĭ": 4443,
      "æ³ķå¾ĭ": 4444,
      "æĻºèĥ½": 4445,
      "rew": 4446,
      "éĢ£": 4447,
      "çļĦå¤§": 4448,
      "ica": 4449,
      "Ġearly": 4450,
      "å°Ī": 4451,
      "ega": 4452,
      "NA": 4453,
      "\"}": 4454,
      "Ġpolit": 4455,
      "ender": 4456,
      "ĠEn": 4457,
      "çĨŁ": 4458,
      "icy": 4459,
      "Ġaction": 4460,
      "Ġ->": 4461,
      "Ġalready": 4462,
      "æ±ł": 4463,
      "aken": 4464,
      "ĠCount": 4465,
      "[]": 4466,
      "æľĢåĲİ": 4467,
      "çĶµè§Ĩ": 4468,
      "åĬŀåħ¬": 4469,
      "lock": 4470,
      "ä¸»ä»»": 4471,
      "ï¼į": 4472,
      "rior": 4473,
      "Ġcompany": 4474,
      "Ġgive": 4475,
      "ĠCo": 4476,
      "é¬": 4477,
      "éª¨": 4478,
      "Ġcur": 4479,
      "äºĪ": 4480,
      "æ°£": 4481,
      "Ġbase": 4482,
      "å½¢æĪĲ": 4483,
      "Ġbig": 4484,
      "Ġgovernment": 4485,
      "vironment": 4486,
      "äººçī©": 4487,
      "ride": 4488,
      "Man": 4489,
      "Ġpay": 4490,
      "lete": 4491,
      "èı¯": 4492,
      "roups": 4493,
      "åįĸ": 4494,
      "éģĶ": 4495,
      "æħ¢": 4496,
      "ĠPol": 4497,
      "ä»»ä½ķ": 4498,
      "urity": 4499,
      "ĠCal": 4500,
      "Ġnec": 4501,
      "æķħäºĭ": 4502,
      "è®¤ä¸º": 4503,
      "());Ċ": 4504,
      "Ġable": 4505,
      "ĉĉĉĉĉ": 4506,
      "username": 4507,
      "osp": 4508,
      "ero": 4509,
      "igma": 4510,
      "ament": 4511,
      "oper": 4512,
      "ixed": 4513,
      "ĠTe": 4514,
      "Ġstop": 4515,
      "iple": 4516,
      "çĽĽ": 4517,
      "hold": 4518,
      "Ġhref": 4519,
      "ä¸įæĸŃ": 4520,
      "ĠNational": 4521,
      "cul": 4522,
      "ĠGe": 4523,
      "OL": 4524,
      "ĠLet": 4525,
      "æĸ¹æ¡Ī": 4526,
      "trans": 4527,
      "æĿĤ": 4528,
      "è¿ŀè½½": 4529,
      "Ġcontent": 4530,
      "oph": 4531,
      "Not": 4532,
      "mat": 4533,
      "çī¹åĪ«": 4534,
      "Request": 4535,
      "array": 4536,
      "Ġsure": 4537,
      "ators": 4538,
      "ones": 4539,
      "ze": 4540,
      "Ġprovided": 4541,
      "ä¸įè¦ģ": 4542,
      "ological": 4543,
      "è§ĦåĪĴ": 4544,
      "Ġsugg": 4545,
      "Ġrequired": 4546,
      "oog": 4547,
      "Ġrequire": 4548,
      "position": 4549,
      "èµĦæĸĻ": 4550,
      "çĶµè¯Ŀ": 4551,
      "Ġpred": 4552,
      "å¹ķ": 4553,
      "conom": 4554,
      "Ġinteg": 4555,
      "Ġcost": 4556,
      "Ġpubl": 4557,
      "Ġenc": 4558,
      "Ġdefault": 4559,
      "çĪĨ": 4560,
      "Ġobserv": 4561,
      "åĪ¶åº¦": 4562,
      "(n": 4563,
      "å·ŀå¸Ĥ": 4564,
      "ĠÃ": 4565,
      "è¿Ļæĺ¯": 4566,
      "ç§Ł": 4567,
      "Ġcolor": 4568,
      "è®¢": 4569,
      "å¡ŀ": 4570,
      "ä»Ĭå¤©": 4571,
      "æĳĦ": 4572,
      "Ġbecame": 4573,
      "æ¢ħ": 4574,
      "æ¶Īè´¹": 4575,
      "_N": 4576,
      "Ġtell": 4577,
      "-\\": 4578,
      "å½Ĵ": 4579,
      "Ġcame": 4580,
      "ached": 4581,
      "Ġtable": 4582,
      "è¿ĻéĩĮ": 4583,
      "Ġcomput": 4584,
      "æĽ¸": 4585,
      "åŁºéĩĳ": 4586,
      "ä½įç½®": 4587,
      "æ¼«": 4588,
      "ĠThese": 4589,
      "((": 4590,
      "Ġroom": 4591,
      "è¶£": 4592,
      "oin": 4593,
      "ips": 4594,
      "éĢĲ": 4595,
      "è§Ī": 4596,
      "but": 4597,
      "CE": 4598,
      "hib": 4599,
      "Item": 4600,
      "raft": 4601,
      "config": 4602,
      "Ġcomplet": 4603,
      "Ġcompon": 4604,
      "å§Ķåĳĺä¼ļ": 4605,
      "uation": 4606,
      "Ġcrit": 4607,
      "ĠThat": 4608,
      "CH": 4609,
      "stit": 4610,
      "[i": 4611,
      "ĠĠĠĠĠĠĠĠĠĠ": 4612,
      "å¸«": 4613,
      "ilit": 4614,
      "'ve": 4615,
      "oney": 4616,
      "Ġ/*": 4617,
      "Event": 4618,
      "äº¤æĺĵ": 4619,
      "Ġwhether": 4620,
      "å°İ": 4621,
      "ĠEd": 4622,
      "å§Ĳ": 4623,
      "èĻķ": 4624,
      "Ġanalysis": 4625,
      "ief": 4626,
      "Ġsym": 4627,
      "test": 4628,
      "åĢĴ": 4629,
      "gress": 4630,
      "stance": 4631,
      "Ġdone": 4632,
      "plate": 4633,
      "////////": 4634,
      "Ġsat": 4635,
      "å¸ģ": 4636,
      "perties": 4637,
      "ogn": 4638,
      "ĠCont": 4639,
      "ä¸Ģæł·": 4640,
      "Ġauthor": 4641,
      "è°Ī": 4642,
      "(c": 4643,
      "æ±ĩ": 4644,
      "Ġarray": 4645,
      "roid": 4646,
      "itted": 4647,
      "çĹĩ": 4648,
      "Ġindividual": 4649,
      "\\in": 4650,
      "Ġoften": 4651,
      "æıĲåĩº": 4652,
      "Ġdescribed": 4653,
      "indows": 4654,
      ".e": 4655,
      "_D": 4656,
      "/s": 4657,
      "');Ċ": 4658,
      "éĺħè¯»": 4659,
      "/m": 4660,
      "Form": 4661,
      "çĵ¦": 4662,
      "bol": 4663,
      "åĤ³": 4664,
      "Ġhuman": 4665,
      "çĽ®æłĩ": 4666,
      "Ġassert": 4667,
      "è´¸": 4668,
      "wh": 4669,
      "ague": 4670,
      "å¹¸": 4671,
      "çĦ¶åĲİ": 4672,
      "aff": 4673,
      "çĽĸ": 4674,
      "æĲŃ": 4675,
      "Ġcity": 4676,
      "åĩĢ": 4677,
      "rodu": 4678,
      "gether": 4679,
      "åĽ°": 4680,
      "Ġtogether": 4681,
      "çĸĳ": 4682,
      "Ġwin": 4683,
      "è¿ª": 4684,
      "åºĦ": 4685,
      "çĹĽ": 4686,
      "Ġder": 4687,
      "pons": 4688,
      "oud": 4689,
      "éĦ": 4690,
      "ä¹ĭéĹ´": 4691,
      "Ġfar": 4692,
      "èĭ¦": 4693,
      "Ġpract": 4694,
      "Ġspecific": 4695,
      "Ġmember": 4696,
      "èįĲ": 4697,
      "pen": 4698,
      ".st": 4699,
      "Ġenerg": 4700,
      "mu": 4701,
      "ĠWhat": 4702,
      "é¡¶": 4703,
      "-st": 4704,
      "amples": 4705,
      "word": 4706,
      "å·¨": 4707,
      "Ġsignal": 4708,
      "åı¥": 4709,
      "ĠWar": 4710,
      "Ġamong": 4711,
      "Context": 4712,
      "åĪ¶éĢł": 4713,
      "Ġlik": 4714,
      "part": 4715,
      "_name": 4716,
      "è®¿": 4717,
      "Ġsec": 4718,
      "åħ¨çĲĥ": 4719,
      "éĩĳèŀį": 4720,
      "ULL": 4721,
      "Map": 4722,
      "åĩºçĶŁ": 4723,
      "agement": 4724,
      "ĠChrist": 4725,
      "é¢¨": 4726,
      "åıªæľī": 4727,
      "ftware": 4728,
      "æ°´å¹³": 4729,
      "][": 4730,
      "most": 4731,
      "ians": 4732,
      "Ġthough": 4733,
      "Class": 4734,
      "ĠMin": 4735,
      "Ġill": 4736,
      "èĪ¹": 4737,
      "De": 4738,
      "é²ľ": 4739,
      "æĿ¡ä»¶": 4740,
      "ä¸¤ä¸ª": 4741,
      "Ġsent": 4742,
      "Ġphot": 4743,
      "Ġdom": 4744,
      "ä¸įè¿ĩ": 4745,
      "éĩįçĤ¹": 4746,
      "å«": 4747,
      "ring": 4748,
      "å¥¶": 4749,
      "ribution": 4750,
      ".P": 4751,
      "æįŁ": 4752,
      "Ġwomen": 4753,
      "uture": 4754,
      "/d": 4755,
      "Ġmembers": 4756,
      "(),": 4757,
      "sequ": 4758,
      "='": 4759,
      "èĦ¸": 4760,
      "å¿ħé¡»": 4761,
      "çİ°ä»£": 4762,
      "çľŁçļĦ": 4763,
      "Ġlo": 4764,
      "\".": 4765,
      "çŀ": 4766,
      "ĠAfter": 4767,
      "irl": 4768,
      "ä¸Ģä¸ĭ": 4769,
      "Add": 4770,
      "Ġtre": 4771,
      "illed": 4772,
      "Ġsurface": 4773,
      "github": 4774,
      "Ġlower": 4775,
      "Ġface": 4776,
      "etic": 4777,
      "Ġsuggest": 4778,
      "}^{": 4779,
      "éĺ¶": 4780,
      "è¡ĮæĺŁ": 4781,
      "ugust": 4782,
      "Ġsection": 4783,
      ".add": 4784,
      "é¢ĨåŁŁ": 4785,
      "Ġland": 4786,
      "å¹³æĸ¹": 4787,
      "Ġlarg": 4788,
      "äº¦": 4789,
      "Ġsens": 4790,
      "å¼Ł": 4791,
      "bum": 4792,
      "åĺī": 4793,
      "Ġreason": 4794,
      "Ġabs": 4795,
      "åīĤ": 4796,
      "éĵ¶è¡Į": 4797,
      "ĠHis": 4798,
      "åıªæĺ¯": 4799,
      "'ll": 4800,
      "ä¼¯": 4801,
      "lambda": 4802,
      "é¥®": 4803,
      "OP": 4804,
      "Ġaddress": 4805,
      "$$": 4806,
      "ibility": 4807,
      "Ġflow": 4808,
      "ĠGu": 4809,
      "æĿŁ": 4810,
      "æķĻå¸Ī": 4811,
      "Ġage": 4812,
      "mit": 4813,
      "ç¨±": 4814,
      "éłŃ": 4815,
      "ĠAust": 4816,
      "oogle": 4817,
      "Sc": 4818,
      "çĶ¨äºİ": 4819,
      "Ġenough": 4820,
      "èŃ°": 4821,
      "Ġcou": 4822,
      "Ġaccount": 4823,
      "ks": 4824,
      "çģ¯": 4825,
      "Ġemploy": 4826,
      "olean": 4827,
      "Ġprim": 4828,
      ".html": 4829,
      "urope": 4830,
      "Ġlove": 4831,
      "ç°": 4832,
      "æĺ¯åĲ¦": 4833,
      "ĠFIG": 4834,
      "#define": 4835,
      "åħ¨éĿ¢": 4836,
      "Ġra": 4837,
      "éŁ©": 4838,
      "ä¹Łä¸į": 4839,
      "æ²»çĸĹ": 4840,
      "oll": 4841,
      "æĶ¶åħ¥": 4842,
      "è¡ĵ": 4843,
      "å®īè£ħ": 4844,
      "ç»ĵæŀľ": 4845,
      "_com": 4846,
      "chan": 4847,
      "ened": 4848,
      "Ġstd": 4849,
      "åľ°çĤ¹": 4850,
      "ç¿»": 4851,
      "Ġdiff": 4852,
      "ino": 4853,
      "angle": 4854,
      "Ġacross": 4855,
      "æĭ¥æľī": 4856,
      "åľĺ": 4857,
      "å®ĭ": 4858,
      "ude": 4859,
      "éĢĶ": 4860,
      "åºĶè¯¥": 4861,
      "è®ĵ": 4862,
      "icon": 4863,
      "èģĶç³»": 4864,
      "éĩĬ": 4865,
      "_B": 4866,
      "usion": 4867,
      "Ġonce": 4868,
      "ged": 4869,
      "ç»©": 4870,
      "ï¿½": 4871,
      "æ¾³": 4872,
      "Ġden": 4873,
      "Ġphys": 4874,
      "åĪĨéĴŁ": 4875,
      "Ġmom": 4876,
      "åĢŁ": 4877,
      "sk": 4878,
      "Ġworking": 4879,
      "Ġbit": 4880,
      "book": 4881,
      "ç´Ħ": 4882,
      "istor": 4883,
      "ising": 4884,
      "artment": 4885,
      "Ġimp": 4886,
      "éģ¿": 4887,
      "Ġunderstand": 4888,
      "ç¦ģ": 4889,
      "ä¸¹": 4890,
      "section": 4891,
      "alt": 4892,
      "Ġ\"\"": 4893,
      "Ġmusic": 4894,
      "Ġfoot": 4895,
      "èĩªåĬ¨": 4896,
      "åľĪ": 4897,
      "Ġactiv": 4898,
      "era": 4899,
      "Ġtw": 4900,
      "éĲ": 4901,
      "ids": 4902,
      "ä¼´": 4903,
      "';Ċ": 4904,
      "Ġdevelopment": 4905,
      "çļĦå°ı": 4906,
      "Service": 4907,
      "Node": 4908,
      "Ġtitle": 4909,
      "Ġred": 4910,
      "èĻ½çĦ¶": 4911,
      "Ġmaking": 4912,
      "Ġstrong": 4913,
      "Ġ<<": 4914,
      "æĽ´æĸ°": 4915,
      "isc": 4916,
      "ç§ģ": 4917,
      "Ġdisplay": 4918,
      "çĥĪ": 4919,
      "Ġestabl": 4920,
      "Ġreceived": 4921,
      "Ġfac": 4922,
      "Ġseen": 4923,
      "imate": 4924,
      "ä¹ĭåīį": 4925,
      "ptember": 4926,
      "Ġheld": 4927,
      "Ġep": 4928,
      "phi": 4929,
      "Ġdri": 4930,
      "åĪ¥": 4931,
      "gen": 4932,
      "åķĨåĵģ": 4933,
      "ä¸ĭè½½": 4934,
      "max": 4935,
      "At": 4936,
      "éŁ³ä¹Ĳ": 4937,
      "èĲ¬": 4938,
      "ights": 4939,
      "Over": 4940,
      "ä¸ģ": 4941,
      "Ġinfl": 4942,
      "}_": 4943,
      "æ¨Ļ": 4944,
      "Ġcertain": 4945,
      "Index": 4946,
      "Ġwent": 4947,
      "æİ¨èįĲ": 4948,
      "å¸®åĬ©": 4949,
      "çº¸": 4950,
      "Ġconc": 4951,
      "Ġrole": 4952,
      "æĹĹ": 4953,
      "è¯º": 4954,
      "åİļ": 4955,
      "Ġoffer": 4956,
      "~~": 4957,
      "illi": 4958,
      "ana": 4959,
      "pril": 4960,
      "Ġpast": 4961,
      "ĠBrit": 4962,
      "é¡ŀ": 4963,
      "roller": 4964,
      "now": 4965,
      "respond": 4966,
      "ç©ºéĹ´": 4967,
      "istic": 4968,
      "Ġtalk": 4969,
      "rect": 4970,
      "Ġquestion": 4971,
      "cle": 4972,
      "å®«": 4973,
      "èĤ¤": 4974,
      "sum": 4975,
      "ä»Ļ": 4976,
      "imum": 4977,
      "çļĦäºĭ": 4978,
      "Ġbecome": 4979,
      "with": 4980,
      "inary": 4981,
      "é¡Į": 4982,
      "æĺ¾ç¤º": 4983,
      "ctober": 4984,
      "Ġpur": 4985,
      "æĬ¥åĳĬ": 4986,
      "çĥŁ": 4987,
      "Field": 4988,
      "ĠFl": 4989,
      "Ġthird": 4990,
      "æĢĢ": 4991,
      "Ġstyle": 4992,
      "çĸ¾": 4993,
      "æİĮ": 4994,
      "çĶ³è¯·": 4995,
      "Ġindex": 4996,
      "umb": 4997,
      "Ġdat": 4998,
      "ĠReg": 4999,
      "ĠMed": 5000,
      "æĮĩå¯¼": 5001,
      "Ġsequ": 5002,
      "struction": 5003,
      "Ġaccording": 5004,
      "Ġrefer": 5005,
      "ponent": 5006,
      "åĽ¾ä¹¦": 5007,
      "è¬": 5008,
      "æĺł": 5009,
      "èĤ¯": 5010,
      "result": 5011,
      "Ġ{\\": 5012,
      "no": 5013,
      "æ´¥": 5014,
      "æľºæ¢°": 5015,
      "ç¸£": 5016,
      "Of": 5017,
      "ä½ĵèĤ²": 5018,
      "Ġkind": 5019,
      "Log": 5020,
      "Ġenergy": 5021,
      "ĠSouth": 5022,
      "çĬ¶æĢģ": 5023,
      "New": 5024,
      "andom": 5025,
      "Ġ__": 5026,
      "sel": 5027,
      "nder": 5028,
      "æĮ¥": 5029,
      "ij": 5030,
      "ius": 5031,
      "è°·": 5032,
      "ĠOne": 5033,
      "èİ«": 5034,
      "Des": 5035,
      "Wh": 5036,
      "Ġspecial": 5037,
      "Ġstre": 5038,
      "çŁ¿": 5039,
      "ãĢĭãĢģãĢĬ": 5040,
      "ĠGerm": 5041,
      "Ġnil": 5042,
      "Ġmessage": 5043,
      "Ġsite": 5044,
      "EM": 5045,
      "å¡ĳ": 5046,
      "æ±¡": 5047,
      "è£Ŀ": 5048,
      "}^": 5049,
      "è®Ĭ": 5050,
      "lood": 5051,
      "elt": 5052,
      "ç»ıéªĮ": 5053,
      "iol": 5054,
      "Ġcourse": 5055,
      "from": 5056,
      "ç´ļ": 5057,
      "ĠSchool": 5058,
      "æĦĽ": 5059,
      "åį«çĶŁ": 5060,
      "ä¿Ŀéļľ": 5061,
      "ä¹¦è®°": 5062,
      "çĶŁçī©": 5063,
      "åİŁåĽł": 5064,
      "Def": 5065,
      "Ġyoung": 5066,
      "Ġreview": 5067,
      "å¾ĹåĪ°": 5068,
      "ocation": 5069,
      "èĥ¡": 5070,
      "'d": 5071,
      "Ġwhy": 5072,
      "asing": 5073,
      "æª": 5074,
      "Ġvarious": 5075,
      "æ»ĳ": 5076,
      "åĳ¼": 5077,
      "Ġfive": 5078,
      "ĠChe": 5079,
      "çĺ": 5080,
      "Ġdeath": 5081,
      "Ġcountry": 5082,
      "åĭĴ": 5083,
      "æĸ½å·¥": 5084,
      "ĠMy": 5085,
      "è·ĳ": 5086,
      "é½Ĳ": 5087,
      "è¿·": 5088,
      "ayout": 5089,
      "ĠSer": 5090,
      "åĥ¹": 5091,
      "Ġcontext": 5092,
      "æĬĺ": 5093,
      "Ġstructure": 5094,
      "cho": 5095,
      "æĶ¹éĿ©": 5096,
      "Ġpoints": 5097,
      "field": 5098,
      "}_{": 5099,
      "init": 5100,
      "Ġresearch": 5101,
      "é£Łåĵģ": 5102,
      "å®¶åºŃ": 5103,
      "ounds": 5104,
      "æĹ¶ä»£": 5105,
      "Ġsubject": 5106,
      "(b": 5107,
      "å¹¼": 5108,
      "She": 5109,
      "utes": 5110,
      "æŃ£å¼ı": 5111,
      "Ġhigher": 5112,
      "ĠMc": 5113,
      "æĭŁ": 5114,
      "Ġparent": 5115,
      "OD": 5116,
      "Ġcustom": 5117,
      "Ġelement": 5118,
      "ĠWith": 5119,
      "æıı": 5120,
      "Ã³": 5121,
      "æ¨£": 5122,
      "Ġrelations": 5123,
      "ä»·åĢ¼": 5124,
      "Ġsepar": 5125,
      "åľĨ": 5126,
      "ĠList": 5127,
      "Ġexec": 5128,
      "ada": 5129,
      "æ³¨åĨĮ": 5130,
      "augh": 5131,
      "éº»": 5132,
      "Ġlot": 5133,
      "èĵĿ": 5134,
      "è°ģ": 5135,
      "å°ıè¡ĮæĺŁ": 5136,
      "Ġben": 5137,
      "åĨ³å®ļ": 5138,
      "å¼·": 5139,
      "Ġplan": 5140,
      "Ġorg": 5141,
      "eder": 5142,
      "Ġrate": 5143,
      "åĨľä¸ļ": 5144,
      "ĠGener": 5145,
      "ä¼łç»Ł": 5146,
      "_h": 5147,
      "èĦ±": 5148,
      "çĲĨè®º": 5149,
      "Ġrepl": 5150,
      "åĨ¬": 5151,
      "Ġmeet": 5152,
      "åľ³": 5153,
      "Ġsuper": 5154,
      "ĠBy": 5155,
      "å±ı": 5156,
      "':": 5157,
      "æĳ©": 5158,
      "æ£ĢæŁ¥": 5159,
      "æĹ§": 5160,
      "Ġthing": 5161,
      "åĤ¨": 5162,
      "ÃŃ": 5163,
      "æµª": 5164,
      "ops": 5165,
      "Ġlength": 5166,
      "ĠQu": 5167,
      "idge": 5168,
      "éŀ": 5169,
      "ĠGet": 5170,
      "æŃ£åľ¨": 5171,
      "plit": 5172,
      "æĮĳ": 5173,
      "ä»»åĬ¡": 5174,
      "Ġshows": 5175,
      "å¼¹": 5176,
      "Ġhowever": 5177,
      "åķı": 5178,
      "åĬª": 5179,
      "Ġassociated": 5180,
      "Ġinf": 5181,
      "å¢ŀéķ¿": 5182,
      "User": 5183,
      "Size": 5184,
      "åĬłå¼º": 5185,
      "çī¹èī²": 5186,
      "Ġ},Ċ": 5187,
      "Ġload": 5188,
      "ç«Ł": 5189,
      "see": 5190,
      "å¸¶": 5191,
      "å®ŀéĻħ": 5192,
      "box": 5193,
      "Ġdiscuss": 5194,
      "mod": 5195,
      "Ġjob": 5196,
      "cember": 5197,
      "ĠHar": 5198,
      "ĠCity": 5199,
      "ĠMarch": 5200,
      "Ġcult": 5201,
      "irm": 5202,
      "å§Ĩ": 5203,
      "Ġ(!": 5204,
      "ection": 5205,
      "Ġpage": 5206,
      "æĢ§çļĦ": 5207,
      "ector": 5208,
      "±ä¹Ĳ": 5209,
      "ovember": 5210,
      "Ġcompet": 5211,
      "æ²ī": 5212,
      "ourt": 5213,
      "æ·±åľ³": 5214,
      "ä¸Ńåľĭ": 5215,
      "ç»§ç»Ń": 5216,
      "è©±": 5217,
      "ĠEurope": 5218,
      "Ġcoun": 5219,
      "å®Įåħ¨": 5220,
      "äº¤æµģ": 5221,
      "ç½ª": 5222,
      "è´Ŀ": 5223,
      "æ°ı": 5224,
      "Ġbar": 5225,
      "è³ª": 5226,
      ".R": 5227,
      "ç¥ĸ": 5228,
      "å®ĩ": 5229,
      "åıĤä¸İ": 5230,
      "åĪº": 5231,
      "Ġmass": 5232,
      "çĤİ": 5233,
      "Ġamount": 5234,
      "Ġformer": 5235,
      "å°ıæĹ¶": 5236,
      "Ad": 5237,
      "CC": 5238,
      "Ġsix": 5239,
      "ores": 5240,
      "æ¼Ķåĳĺ": 5241,
      "list": 5242,
      "orage": 5243,
      "Ġapplication": 5244,
      "PS": 5245,
      "æĮīçħ§": 5246,
      "åĮ»çĸĹ": 5247,
      "Ġfoc": 5248,
      "irection": 5249,
      "lege": 5250,
      "èĦļ": 5251,
      "éģĹ": 5252,
      "Ġ]": 5253,
      "è¨ĺ": 5254,
      "æ¶¦": 5255,
      "ĠInt": 5256,
      "æĦŁè§ī": 5257,
      "æ¯ĶèµĽ": 5258,
      "Ġnight": 5259,
      "AA": 5260,
      "Val": 5261,
      "pre": 5262,
      "Ġasked": 5263,
      "ç»ĵåĲĪ": 5264,
      "ĠBo": 5265,
      "èªį": 5266,
      "ĠMe": 5267,
      "ĠPart": 5268,
      "åĲĽ": 5269,
      "Ent": 5270,
      "{al": 5271,
      "åĬłåħ¥": 5272,
      "ĉpublic": 5273,
      "ĠRep": 5274,
      "åīĩ": 5275,
      "create": 5276,
      "å»£": 5277,
      "âĪĴ": 5278,
      "arrow": 5279,
      "Ġproperty": 5280,
      "abor": 5281,
      "æİª": 5282,
      "çĶļèĩ³": 5283,
      "é¢ľ": 5284,
      "çıł": 5285,
      "Ġmatch": 5286,
      "ĠAN": 5287,
      "met": 5288,
      "åľĸ": 5289,
      "èĢ³": 5290,
      "Result": 5291,
      "éĢłæĪĲ": 5292,
      "å®½": 5293,
      "Ġsong": 5294,
      "Ġneg": 5295,
      "IR": 5296,
      "ilter": 5297,
      "æĪĳåĢĳ": 5298,
      "æĽ¼": 5299,
      "ä½ĵç³»": 5300,
      "Ġdocument": 5301,
      "cher": 5302,
      "å·§": 5303,
      "ç¨ĭåºı": 5304,
      "uffer": 5305,
      "Ġincluded": 5306,
      "é²ģ": 5307,
      "Ġfront": 5308,
      "Ġhost": 5309,
      "ä¼°": 5310,
      "Ġtold": 5311,
      "Hand": 5312,
      "tings": 5313,
      "Array": 5314,
      "omet": 5315,
      "è§īå¾Ĺ": 5316,
      "unk": 5317,
      "Ġcases": 5318,
      "_r": 5319,
      "æĿ¯": 5320,
      "where": 5321,
      "Up": 5322,
      "ottom": 5323,
      "ĠJune": 5324,
      "Ġterms": 5325,
      "iet": 5326,
      "eps": 5327,
      "èģĺ": 5328,
      "php": 5329,
      "æĢķ": 5330,
      "_type": 5331,
      "Ġregion": 5332,
      "Ġinstall": 5333,
      "æ¶ī": 5334,
      "å°º": 5335,
      "è´´": 5336,
      "ports": 5337,
      "åĪ¸": 5338,
      "è¡Įä¸º": 5339,
      "ĠCor": 5340,
      "éļĶ": 5341,
      "ynam": 5342,
      "Ġclose": 5343,
      "hern": 5344,
      "comp": 5345,
      "åĹ": 5346,
      "EX": 5347,
      "æ°ĳæĹı": 5348,
      "uments": 5349,
      "Ġ)Ċ": 5350,
      "Ġcorrespond": 5351,
      "Ġ);Ċ": 5352,
      "lin": 5353,
      ")(": 5354,
      "èĤ¥": 5355,
      "iation": 5356,
      "bug": 5357,
      "å®ļçļĦ": 5358,
      "è¦ĭ": 5359,
      "äº§çĶŁ": 5360,
      "æĸ°éĹ»": 5361,
      "åīµ": 5362,
      "ç³ĸ": 5363,
      "åĮºåŁŁ": 5364,
      "ication": 5365,
      "ä¸»ä¹ī": 5366,
      "Ġtrad": 5367,
      "è§Ĩé¢ĳ": 5368,
      "Ġsays": 5369,
      "ster": 5370,
      "æī©": 5371,
      "Ġnode": 5372,
      "Ġhistory": 5373,
      "çĽĳçĿ£": 5374,
      "æĸ¹åĲĳ": 5375,
      "ĠAugust": 5376,
      "Ġever": 5377,
      "Ġupon": 5378,
      "Ġstarted": 5379,
      "ĠIm": 5380,
      "mathbb": 5381,
      "æ¹¾": 5382,
      "èİ±": 5383,
      "aul": 5384,
      "Out": 5385,
      "å®¹æĺĵ": 5386,
      "Ġbegan": 5387,
      "Ġoriginal": 5388,
      "year": 5389,
      "æ¯ķä¸ļ": 5390,
      "æĺ¯åľ¨": 5391,
      "Ġbelow": 5392,
      "oon": 5393,
      "input": 5394,
      "Ġothers": 5395,
      "Message": 5396,
      "Ð»": 5397,
      "ike": 5398,
      "Ġtrack": 5399,
      "è±Ĩ": 5400,
      "Ġchanges": 5401,
      "ĠJanuary": 5402,
      "')Ċ": 5403,
      "Ġ(\\": 5404,
      "Ġeyes": 5405,
      "æļĹ": 5406,
      "åħ¼": 5407,
      "ĠNot": 5408,
      "content": 5409,
      "ç§¯æŀģ": 5410,
      "From": 5411,
      "æİī": 5412,
      "æļ´": 5413,
      "Ġtreatment": 5414,
      "Equ": 5415,
      "api": 5416,
      "åħ³æ³¨": 5417,
      "rown": 5418,
      "Ġsocial": 5419,
      "/p": 5420,
      "rest": 5421,
      "Ġhalf": 5422,
      "PI": 5423,
      "Ġmap": 5424,
      "cm": 5425,
      "Ġfrequ": 5426,
      ".T": 5427,
      "ç¯Ģ": 5428,
      "éĻ¤äºĨ": 5429,
      "Ġcross": 5430,
      "âĶ": 5431,
      "ä¼¦": 5432,
      "Ġexc": 5433,
      "ceed": 5434,
      "èĢĲ": 5435,
      "ĠNorth": 5436,
      "ĠDes": 5437,
      "å¹ħ": 5438,
      "Ġmor": 5439,
      "ĠEl": 5440,
      "ĠBar": 5441,
      "ä¾§": 5442,
      "æİ¥åıĹ": 5443,
      "cy": 5444,
      "Ġdest": 5445,
      "\",_": 5446,
      "Ġver": 5447,
      "-M": 5448,
      "èĥ¶": 5449,
      "æ³ī": 5450,
      "ges": 5451,
      "ä¸ĭçļĦ": 5452,
      "ĠAm": 5453,
      "Ġcommand": 5454,
      "ĠJuly": 5455,
      "èĢģå¸Ī": 5456,
      "è®¾æĸ½": 5457,
      "rt": 5458,
      "æī§è¡Į": 5459,
      "cite": 5460,
      "Ġconditions": 5461,
      "Build": 5462,
      "åĬłå·¥": 5463,
      "ĠAb": 5464,
      "ql": 5465,
      "earch": 5466,
      "Fr": 5467,
      ")čĊ": 5468,
      "ç¾ħ": 5469,
      "æ¢ģ": 5470,
      "Ġcut": 5471,
      "åĲ´": 5472,
      "æĬĵ": 5473,
      "Ġlimit": 5474,
      "bt": 5475,
      "Ġgroups": 5476,
      "Code": 5477,
      "aging": 5478,
      "Ġadded": 5479,
      "pm": 5480,
      "ãĢĭãĢĤ": 5481,
      "æľīçļĦ": 5482,
      "Ġmarket": 5483,
      "æľĹ": 5484,
      "è®¨": 5485,
      "There": 5486,
      "èĨľ": 5487,
      "Ġdefined": 5488,
      "éľĩ": 5489,
      "ii": 5490,
      "èµĦéĩĳ": 5491,
      "ĠLicense": 5492,
      "oke": 5493,
      "Ġissue": 5494,
      "éļĨ": 5495,
      "Ġtaken": 5496,
      "equation": 5497,
      "æĿ¥è¯´": 5498,
      "ç´¯": 5499,
      "ĠApril": 5500,
      "æĥĬ": 5501,
      "summary": 5502,
      "ĠSeptember": 5503,
      "Ġblack": 5504,
      "-n": 5505,
      "Ed": 5506,
      "æµĻ": 5507,
      "å°¾": 5508,
      "Ġimplement": 5509,
      "å¹´åº¦": 5510,
      "ĠOF": 5511,
      "table": 5512,
      ")}": 5513,
      "ĠAct": 5514,
      "è¾¾åĪ°": 5515,
      "æ´ģ": 5516,
      "ging": 5517,
      "ography": 5518,
      "æı¡": 5519,
      "go": 5520,
      "/**Ċ": 5521,
      "æĲľ": 5522,
      "ided": 5523,
      "Ġvia": 5524,
      "mon": 5525,
      "hing": 5526,
      "Ġnecess": 5527,
      "Ġtemper": 5528,
      "ald": 5529,
      "Let": 5530,
      "ĠAdd": 5531,
      "Ġbegin": 5532,
      "äº¡": 5533,
      "ĠDr": 5534,
      "å¹»": 5535,
      "åĪĨäº«": 5536,
      "verage": 5537,
      "Ġ\\[[@": 5538,
      "å½¢å¼ı": 5539,
      "æļĸ": 5540,
      "éĤ®": 5541,
      "Le": 5542,
      "Ġevidence": 5543,
      "-S": 5544,
      "ham": 5545,
      "å¯»": 5546,
      "å°¤": 5547,
      "________": 5548,
      "medi": 5549,
      "èĩº": 5550,
      "Ġembod": 5551,
      "ç®Ģåįķ": 5552,
      "Ġunit": 5553,
      "åĤĻ": 5554,
      "èªŀ": 5555,
      "Ġreleased": 5556,
      "Ġcamp": 5557,
      "atal": 5558,
      "éłħ": 5559,
      "ML": 5560,
      "âĨ": 5561,
      "iddle": 5562,
      "èĲ¨": 5563,
      "èĢĥè¯ķ": 5564,
      "æ¡£": 5565,
      "function": 5566,
      "!\"": 5567,
      "åı¬": 5568,
      "ĠCounty": 5569,
      "Ġdouble": 5570,
      "äººæīį": 5571,
      "ĠOctober": 5572,
      "Ġconduct": 5573,
      "ĠThen": 5574,
      "å®ŀéªĮ": 5575,
      "Ġparticip": 5576,
      "èª¿": 5577,
      "åıĹåĪ°": 5578,
      "çªĹ": 5579,
      "reed": 5580,
      "Ġrisk": 5581,
      "anch": 5582,
      "mission": 5583,
      "pty": 5584,
      "reate": 5585,
      ".W": 5586,
      "æľīäºĽ": 5587,
      "åıĸå¾Ĺ": 5588,
      "Ġalbum": 5589,
      "{equation": 5590,
      "Ġimm": 5591,
      "æĢĿæĥ³": 5592,
      "å»ºè®®": 5593,
      "Ġreported": 5594,
      "åħ±åĲĮ": 5595,
      "atory": 5596,
      "åĩºäºĨ": 5597,
      "âĸ": 5598,
      "ha": 5599,
      "ĉc": 5600,
      "æĻ®éĢļ": 5601,
      "æ¥ļ": 5602,
      ">ĊĊ": 5603,
      "Ġbound": 5604,
      "script": 5605,
      "();ĊĊ": 5606,
      "ç¤¾åĮº": 5607,
      "çº¯": 5608,
      "åħ¶å®ŀ": 5609,
      "ä¸įå¾Ĺ": 5610,
      "Ġstory": 5611,
      "Ġfund": 5612,
      "lish": 5613,
      "Ġseem": 5614,
      "uel": 5615,
      "Ġdeg": 5616,
      "Ġexpression": 5617,
      "Ġplayed": 5618,
      "åŃĶ": 5619,
      "Ġyet": 5620,
      "ç¬¬äºĶ": 5621,
      "ĠMr": 5622,
      "CL": 5623,
      "ĠPer": 5624,
      "Be": 5625,
      "Ġinitial": 5626,
      "bit": 5627,
      "æĢ»éĥ¨": 5628,
      "ills": 5629,
      "bruary": 5630,
      "å¾Ĳ": 5631,
      "amespace": 5632,
      "æĪª": 5633,
      "Ġcommunity": 5634,
      "æĪĲç«ĭæĹ¶éĹ´": 5635,
      "Ġcreated": 5636,
      "Ġground": 5637,
      "ibrary": 5638,
      "Ġhttp": 5639,
      "åĪĬ": 5640,
      "é¸¡": 5641,
      "Trans": 5642,
      "Ġinstance": 5643,
      "]\\": 5644,
      "\"></": 5645,
      "Ġlink": 5646,
      "å¦¹": 5647,
      "Ġcopy": 5648,
      "Ġcomplex": 5649,
      "æ½®": 5650,
      "Model": 5651,
      "Ġrespons": 5652,
      "Ġwidth": 5653,
      "ç¾©": 5654,
      "è²»": 5655,
      "},Ċ": 5656,
      "å¿«éĢŁ": 5657,
      "Ġservices": 5658,
      "ä¿ĿæĮģ": 5659,
      "ese": 5660,
      "Extern": 5661,
      "æĻĤéĸĵ": 5662,
      "ĠĠĠĠĠĠĠĠĠĠĠĠĠĠ": 5663,
      "link": 5664,
      "abase": 5665,
      "ersion": 5666,
      "EL": 5667,
      "çİ©å®¶": 5668,
      "acc": 5669,
      "Ġeduc": 5670,
      "Ġpopulation": 5671,
      "ilon": 5672,
      "æĹ¢": 5673,
      "lim": 5674,
      "è®¸å¤ļ": 5675,
      "ĠHer": 5676,
      "Ġadj": 5677,
      "èĪĴ": 5678,
      "å¾Ħ": 5679,
      "è¯Ĭ": 5680,
      "ä¸Ńåįİ": 5681,
      "åĬ±": 5682,
      "Inter": 5683,
      "èĺŃ": 5684,
      "çĩŁ": 5685,
      "Ġbuilding": 5686,
      "ä¿Ħ": 5687,
      "Ġsystems": 5688,
      "åĪ·": 5689,
      "Ġmeasure": 5690,
      "å¼µ": 5691,
      "allinks": 5692,
      "ä¹ĺ": 5693,
      "Ġcontact": 5694,
      "Externallinks": 5695,
      "åįıä¼ļ": 5696,
      "Ġstudies": 5697,
      "apan": 5698,
      "ires": 5699,
      "æĵļ": 5700,
      "æĸĩç«ł": 5701,
      "beta": 5702,
      "Read": 5703,
      "Ġsil": 5704,
      "æĺĮ": 5705,
      "Ġperformance": 5706,
      "rup": 5707,
      "minist": 5708,
      "è§¦": 5709,
      "efore": 5710,
      "ĠĠĠĠĊ": 5711,
      "çĬ¯": 5712,
      "è§Ĵèī²": 5713,
      "æĽ´åĬł": 5714,
      "è¯Ńè¨Ģ": 5715,
      "^{-": 5716,
      "æĢª": 5717,
      ".L": 5718,
      "+\\": 5719,
      "Ġwalk": 5720,
      "æķı": 5721,
      "è£ģ": 5722,
      "èıĮ": 5723,
      "yth": 5724,
      "åħ·ä½ĵ": 5725,
      "IV": 5726,
      "Ġtown": 5727,
      "æ³ķå®ļ": 5728,
      "åľĴ": 5729,
      "big": 5730,
      "æľ±": 5731,
      "ĠNULL": 5732,
      "Ġdoesn": 5733,
      "Ġconsidered": 5734,
      "point": 5735,
      "æ²¿": 5736,
      "verse": 5737,
      "èģĶåĲĪ": 5738,
      "oved": 5739,
      "CD": 5740,
      "Ġinvestig": 5741,
      "Ġincludes": 5742,
      "lean": 5743,
      "Ðº": 5744,
      "èĩªçĶ±": 5745,
      "Ġmillion": 5746,
      "éĺ´": 5747,
      "Ġvalid": 5748,
      "Ã¼": 5749,
      "ping": 5750,
      "æ²Ĵæľī": 5751,
      "ĠDecember": 5752,
      "Ġbool": 5753,
      "è½ī": 5754,
      "åıĺåĮĸ": 5755,
      "åĪĢ": 5756,
      "-A": 5757,
      "åħ¨éĥ¨": 5758,
      "urg": 5759,
      "Ġstandard": 5760,
      "åªĴä½ĵ": 5761,
      "Ġnormal": 5762,
      "Ġattack": 5763,
      "How": 5764,
      "å±¬": 5765,
      "ependent": 5766,
      "ĠNovember": 5767,
      "Ġprior": 5768,
      "umer": 5769,
      "abled": 5770,
      "åĩºæĿ¥": 5771,
      "Ġintrodu": 5772,
      "çĶŁæĢģ": 5773,
      "ä¸ĵå®¶": 5774,
      "æĿ°": 5775,
      "ç½²": 5776,
      "Ġjud": 5777,
      "TR": 5778,
      "ä¸įä»ħ": 5779,
      "Table": 5780,
      "ama": 5781,
      "ä»ģ": 5782,
      "Ġpotential": 5783,
      "ä»Ĭå¹´": 5784,
      "Ġeconom": 5785,
      "Ġmind": 5786,
      "èµµ": 5787,
      "è¯¾ç¨ĭ": 5788,
      "itional": 5789,
      "Ġrather": 5790,
      "éķľ": 5791,
      "å®£ä¼ł": 5792,
      "Ġexpected": 5793,
      "Ġmonths": 5794,
      "PL": 5795,
      "æł¸å¿ĥ": 5796,
      "è®°èĢħ": 5797,
      "æľĢé«ĺ": 5798,
      "åĩºçļĦ": 5799,
      "èĳ£": 5800,
      "ĠPat": 5801,
      "ĠAg": 5802,
      "ä¸ľè¥¿": 5803,
      "å±ŀäºİ": 5804,
      "Ġaw": 5805,
      "è§Ħæ¨¡": 5806,
      "ĠCourt": 5807,
      "éĺµ": 5808,
      "Ġmechan": 5809,
      "argin": 5810,
      "Ġexperience": 5811,
      "ui": 5812,
      "aid": 5813,
      "èĿ": 5814,
      "éļĲ": 5815,
      "é»ĺ": 5816,
      "apter": 5817,
      "Att": 5818,
      "Ġang": 5819,
      "sl": 5820,
      "Ġdiv": 5821,
      "Ġenvironment": 5822,
      "å²¸": 5823,
      "Ġentire": 5824,
      "é¡¿": 5825,
      "æ·¡": 5826,
      "Ser": 5827,
      "åħįè´¹": 5828,
      "ä¸ĢåĢĭ": 5829,
      "/b": 5830,
      "tes": 5831,
      "çķ«": 5832,
      "anel": 5833,
      "Ġansw": 5834,
      "itting": 5835,
      "request": 5836,
      "^\\": 5837,
      "pression": 5838,
      "å¯¸": 5839,
      "çļĦè¯Ŀ": 5840,
      "quad": 5841,
      "ille": 5842,
      "è§Ģ": 5843,
      "ving": 5844,
      "ĠChar": 5845,
      "æ¸Ĳ": 5846,
      "xy": 5847,
      "æķĻæİĪ": 5848,
      "Ġcompos": 5849,
      "åĩĨå¤ĩ": 5850,
      "Ġfuture": 5851,
      "èģĶç½ĳ": 5852,
      "Ġcoll": 5853,
      "âĢ¢": 5854,
      "_j": 5855,
      "ĠApp": 5856,
      "oe": 5857,
      "æĹłæ³ķ": 5858,
      "Ġq": 5859,
      "ä¼ĺç§Ģ": 5860,
      "æ¢Ŀ": 5861,
      "Ġinj": 5862,
      "èī¾": 5863,
      "ä¿ĿéĻ©": 5864,
      "æīįèĥ½": 5865,
      "è¿Ľä¸ĢæŃ¥": 5866,
      "æĪĳåĽ½": 5867,
      "Element": 5868,
      "ĠComp": 5869,
      "Ġfeature": 5870,
      "map": 5871,
      "ournal": 5872,
      "atural": 5873,
      "åŃĻ": 5874,
      "âĹ": 5875,
      "è¾¦": 5876,
      "åģı": 5877,
      "check": 5878,
      "uid": 5879,
      "Ġdoing": 5880,
      "Mod": 5881,
      "å·¦åı³": 5882,
      "åĬªåĬĽ": 5883,
      "Ġalmost": 5884,
      "Ġcy": 5885,
      "å±±ä¸ľ": 5886,
      "Ġlanguage": 5887,
      "BC": 5888,
      "åħ¬åħ±": 5889,
      "_g": 5890,
      "izing": 5891,
      "Ġstatus": 5892,
      "é¼ĵ": 5893,
      "<issue": 5894,
      "_comment": 5895,
      "éļıçĿĢ": 5896,
      "urb": 5897,
      "Ġfather": 5898,
      "äººä»¬": 5899,
      "Ġstudents": 5900,
      "width": 5901,
      "leq": 5902,
      "éĨĴ": 5903,
      "Ġlocated": 5904,
      "atform": 5905,
      "å²Ĺ": 5906,
      "ainer": 5907,
      "Ġband": 5908,
      "oo": 5909,
      "}{\\": 5910,
      "Ġ$(": 5911,
      ".pro": 5912,
      "ĠTHE": 5913,
      "ä¸įåı¯": 5914,
      "enu": 5915,
      "åĦ¿ç«¥": 5916,
      "è¯ļ": 5917,
      "ç¾İåľĭ": 5918,
      "Ġmiss": 5919,
      "ĠDep": 5920,
      "anced": 5921,
      "/c": 5922,
      "Ġpaper": 5923,
      "æĿ¥æºĲ": 5924,
      "è®¾ç½®": 5925,
      "è¿Ŀ": 5926,
      "åħĪçĶŁ": 5927,
      "########": 5928,
      "IF": 5929,
      "Ġfall": 5930,
      "Ġmoney": 5931,
      "Ġfeatures": 5932,
      "ĠSw": 5933,
      "æī¬": 5934,
      "æ¯«": 5935,
      "Ġfood": 5936,
      "static": 5937,
      "æľºåħ³": 5938,
      "rad": 5939,
      "äºĮåįģ": 5940,
      "å¹´ä»£": 5941,
      "FIG": 5942,
      "\"I": 5943,
      "Ġcannot": 5944,
      "Ġworks": 5945,
      "down": 5946,
      "Ġgre": 5947,
      "æİ¨è¿Ľ": 5948,
      "è¦ı": 5949,
      "ĠGod": 5950,
      "ç£¨": 5951,
      "Ġsearch": 5952,
      "å·¥åħ·": 5953,
      "ĠPres": 5954,
      "###": 5955,
      "ĠAustral": 5956,
      "çĶŁåĳ½": 5957,
      "è¹": 5958,
      "object": 5959,
      "æĮ¯": 5960,
      "Ġ+=": 5961,
      "æĪĲæľ¬": 5962,
      "Client": 5963,
      "æĨ": 5964,
      "è±ª": 5965,
      "Ġmakes": 5966,
      "æĢ§èĥ½": 5967,
      "Ġmultiple": 5968,
      "å¹¶ä¸Ķ": 5969,
      "true": 5970,
      "æľŁéĹ´": 5971,
      "ĠDav": 5972,
      "çĩĥ": 5973,
      "eed": 5974,
      "æĸĩåŃ¦": 5975,
      "Ġheart": 5976,
      "çİ°åľº": 5977,
      "anks": 5978,
      "Ġdam": 5979,
      "Count": 5980,
      "è¯¯": 5981,
      "ç»ĦæĪĲ": 5982,
      "åĨľæĿĳ": 5983,
      "å®¿": 5984,
      "Ġappear": 5985,
      "Ġmicro": 5986,
      "çĿ¡": 5987,
      "(this": 5988,
      "ç¶Ń": 5989,
      "Ġincrease": 5990,
      "èĻļ": 5991,
      "sigma": 5992,
      "ç»ıè¿ĩ": 5993,
      "è¡¨çİ°": 5994,
      "éłĺ": 5995,
      "é¥Ń": 5996,
      "å¯¼æ¼Ķ": 5997,
      "bsite": 5998,
      "éĺ»": 5999,
      "ç¹ģ": 6000,
      "Ġindust": 6001,
      "inn": 6002,
      "éļĽ": 6003,
      "å¢Ļ": 6004,
      "Ġlevels": 6005,
      "icult": 6006,
      "çµ¦": 6007,
      "Ġpick": 6008,
      "èĥŀ": 6009,
      "valid": 6010,
      "çī¹çĤ¹": 6011,
      "/Ċ": 6012,
      "ĠĠĠĠĠĠĠĠĠĠĠĠĠĠĠĠĠ": 6013,
      "æĮģç»Ń": 6014,
      "åĬĩ": 6015,
      "Ġstation": 6016,
      "Ġgrad": 6017,
      "æĿ¥èĩª": 6018,
      "MS": 6019,
      "image": 6020,
      "ilities": 6021,
      "nown": 6022,
      "é£İéĻ©": 6023,
      "Ġaccept": 6024,
      "è«ĭ": 6025,
      "ĠDist": 6026,
      "æħ§": 6027,
      "Ġach": 6028,
      "åĭĩ": 6029,
      "Response": 6030,
      "den": 6031,
      "åīĳ": 6032,
      "PC": 6033,
      "ĠDo": 6034,
      "Ġmoment": 6035,
      "æ³Ľ": 6036,
      "ken": 6037,
      "äºĭä»¶": 6038,
      "å¹¿ä¸ľ": 6039,
      "æĺ¯ä¸Ģä¸ª": 6040,
      "çį²": 6041,
      "commit": 6042,
      "åħ³éĶ®": 6043,
      "Ġdig": 6044,
      "Ġwr": 6045,
      "des": 6046,
      "æŃĮæĽ²": 6047,
      ".F": 6048,
      "Ġdise": 6049,
      "æµĻæ±Ł": 6050,
      "Ġneeded": 6051,
      "å°Ĭ": 6052,
      "Ġwords": 6053,
      "éģĬ": 6054,
      "Ġengine": 6055,
      "Ġvideo": 6056,
      "è¯¦ç»Ĩ": 6057,
      "ĠID": 6058,
      "bor": 6059,
      "Ġhom": 6060,
      "ĠKing": 6061,
      "èķ": 6062,
      "Ġloss": 6063,
      "ä¹±": 6064,
      "eturn": 6065,
      "ä½ĵéªĮ": 6066,
      "cast": 6067,
      "ĠWest": 6068,
      "Ġwhole": 6069,
      "Ġpercent": 6070,
      "Ġtool": 6071,
      "ensity": 6072,
      "âĢ¦âĢ¦âĢ¦âĢ¦": 6073,
      "ä¹Łæľī": 6074,
      "Ġlive": 6075,
      "Ġlooking": 6076,
      "ining": 6077,
      "Reg": 6078,
      "Ġsum": 6079,
      "Ġpublished": 6080,
      "æ£Ģæµĭ": 6081,
      "Ġrelated": 6082,
      "Ġperformed": 6083,
      "assert": 6084,
      "ondon": 6085,
      "Ġapproach": 6086,
      "è«ĸ": 6087,
      "äº¿åħĥ": 6088,
      "Ġanything": 6089,
      "Ġlayer": 6090,
      "ributed": 6091,
      "Ġarch": 6092,
      "Ġevents": 6093,
      "ç«¹": 6094,
      ".B": 6095,
      "ĠDef": 6096,
      "éĨ«": 6097,
      "xi": 6098,
      "å¯¼èĩ´": 6099,
      "semb": 6100,
      "Ġsolution": 6101,
      "Ġproduction": 6102,
      "æŁ¥çľĭ": 6103,
      "Ġbehav": 6104,
      "åķĨä¸ļ": 6105,
      "æľĢæĸ°": 6106,
      "åĦª": 6107,
      "è´¥": 6108,
      "ilde": 6109,
      "ampions": 6110,
      "ä¸Ģç§į": 6111,
      "éĿ¢çļĦ": 6112,
      "éĢŁåº¦": 6113,
      "æĤ£èĢħ": 6114,
      "å¼±": 6115,
      "ä¸°å¯Į": 6116,
      "Ġinstead": 6117,
      "fully": 6118,
      "åĩ¡": 6119,
      "Ġlabel": 6120,
      "ĠSch": 6121,
      "åı°çģ£": 6122,
      "(-": 6123,
      "èªī": 6124,
      "æ°§": 6125,
      "çºĮ": 6126,
      "æ¹¿": 6127,
      "Ġspecies": 6128,
      "Ġplayer": 6129,
      "ros": 6130,
      "Ġactually": 6131,
      "ĠPe": 6132,
      "å®ĺæĸ¹": 6133,
      "Ġsche": 6134,
      "time": 6135,
      "Param": 6136,
      "æ·»": 6137,
      "Ġ...": 6138,
      "ç»ıèĲ¥èĮĥåĽ´": 6139,
      "ç¼©": 6140,
      "unn": 6141,
      "unch": 6142,
      "åĶ¯": 6143,
      "ĠSet": 6144,
      "ifier": 6145,
      "è¶ħè¿ĩ": 6146,
      "Ġmother": 6147,
      "å¦ĩ": 6148,
      "ç¾İåħĥ": 6149,
      "HT": 6150,
      "Ġoptions": 6151,
      "Manager": 6152,
      "So": 6153,
      "ĠSm": 6154,
      "çĶĺ": 6155,
      "åĿļæĮģ": 6156,
      "ç¼ĺ": 6157,
      "Ġbackground": 6158,
      "Ġbuilt": 6159,
      "æľįåĭĻ": 6160,
      "vis": 6161,
      "Ġwanted": 6162,
      "airs": 6163,
      "èĻĳ": 6164,
      "ĠII": 6165,
      "_k": 6166,
      "ĠSim": 6167,
      "ĠArt": 6168,
      "æĪĳä»¬çļĦ": 6169,
      "è´«": 6170,
      "iber": 6171,
      "rated": 6172,
      "func": 6173,
      "ãĥ¼": 6174,
      "Ġapplic": 6175,
      "When": 6176,
      "{eq": 6177,
      "èļ": 6178,
      "éĥĳ": 6179,
      "æ±º": 6180,
      "Ġrelationship": 6181,
      "Ġcenter": 6182,
      "ç´«": 6183,
      "Ġpack": 6184,
      "åĪĽä½ľ": 6185,
      "Ġhimself": 6186,
      "åıĳè¡¨": 6187,
      "åĩºåı£": 6188,
      "dis": 6189,
      "çļĦé«ĺ": 6190,
      "Ġfire": 6191,
      "Ġpers": 6192,
      "gor": 6193,
      "æ®Ĭ": 6194,
      "ĠLa": 6195,
      "Ġdecl": 6196,
      "Ġmagn": 6197,
      "args": 6198,
      "å¢¨": 6199,
      "-C": 6200,
      "Ġregard": 6201,
      "ç·¨": 6202,
      "Ġdraw": 6203,
      "âĳ": 6204,
      "æĻ¶": 6205,
      "Ġnothing": 6206,
      "è·³": 6207,
      "è´¯": 6208,
      "æľªæĿ¥": 6209,
      "Ġmethods": 6210,
      "Ġwrite": 6211,
      "Ġtask": 6212,
      "Ġbehind": 6213,
      "è·µ": 6214,
      "astic": 6215,
      "fty": 6216,
      "Ġconsist": 6217,
      "board": 6218,
      "rows": 6219,
      "ĠRuss": 6220,
      "è¿Ļä¹Ī": 6221,
      "çĤ¹åĩ»": 6222,
      "å²©": 6223,
      "Ġï¼Ī": 6224,
      "uses": 6225,
      "è¾ħ": 6226,
      "iting": 6227,
      "msg": 6228,
      "Ġnational": 6229,
      "cil": 6230,
      "soft": 6231,
      "ĠPark": 6232,
      "ube": 6233,
      "ington": 6234,
      "åĸĿ": 6235,
      "See": 6236,
      "Ġquick": 6237,
      "Ġcompared": 6238,
      "Ġsimple": 6239,
      "Ġwall": 6240,
      "äºĭä¸ļ": 6241,
      "inally": 6242,
      "çļĦæĸ°": 6243,
      "ä¼Ļ": 6244,
      "åĽ¢éĺŁ": 6245,
      "Ġoption": 6246,
      "èĪī": 6247,
      "è¯Ħè®º": 6248,
      "ä¹³": 6249,
      "Ġpain": 6250,
      ">>": 6251,
      "æ¡ĥ": 6252,
      "ä»£è¡¨äºº": 6253,
      "æģ¶": 6254,
      "äºķ": 6255,
      "Ġrout": 6256,
      "unity": 6257,
      "Em": 6258,
      "çĨ±": 6259,
      "udio": 6260,
      "èĻİ": 6261,
      "éĢ²è¡Į": 6262,
      "è¡¡": 6263,
      "ĠRec": 6264,
      "çĴ°": 6265,
      "ĠBritish": 6266,
      "ocol": 6267,
      "Ġpattern": 6268,
      "Ġrecogn": 6269,
      "title": 6270,
      "ĠSee": 6271,
      "dom": 6272,
      "Ġactivity": 6273,
      "æĸ¹ä¾¿": 6274,
      "å¤ĸéĥ¨": 6275,
      "Ġdeal": 6276,
      "æ³½": 6277,
      "Ġattempt": 6278,
      "ĠMore": 6279,
      "å¹¿åĳĬ": 6280,
      "ãģ®": 6281,
      "That": 6282,
      "Ġmemory": 6283,
      "ĠHouse": 6284,
      "_L": 6285,
      "sy": 6286,
      "ites": 6287,
      "Ġeval": 6288,
      "rench": 6289,
      "Ġselect": 6290,
      "iqu": 6291,
      "cing": 6292,
      "éī": 6293,
      "ä¹Į": 6294,
      "cret": 6295,
      "Ġwhite": 6296,
      "Ġelements": 6297,
      "ä¸įåĲĮçļĦ": 6298,
      "$-": 6299,
      "Ġfav": 6300,
      "ĠFebruary": 6301,
      "åģļå¥½": 6302,
      "stant": 6303,
      "è£½": 6304,
      "Ġdim": 6305,
      "è¾Ĩ": 6306,
      "inition": 6307,
      "ĠRev": 6308,
      "ĠEnglish": 6309,
      "public": 6310,
      "Ġpositive": 6311,
      "ishing": 6312,
      "æıĴ": 6313,
      "ailed": 6314,
      "BN": 6315,
      "ä¸»é¢ĺ": 6316,
      "Ġreference": 6317,
      "df": 6318,
      "Ġadditional": 6319,
      "Ġinside": 6320,
      "Ġtoday": 6321,
      ".is": 6322,
      "éĥ½æľī": 6323,
      "Color": 6324,
      "append": 6325,
      "\\\\": 6326,
      "Ġmatter": 6327,
      "ĠJapan": 6328,
      "ara": 6329,
      "Ġson": 6330,
      "Ġbenef": 6331,
      "Ġsaw": 6332,
      "path": 6333,
      "Ġwritten": 6334,
      "æĬĢèĥ½": 6335,
      "åŁĥ": 6336,
      "attle": 6337,
      "çĥ§": 6338,
      "å·¥èīº": 6339,
      "istance": 6340,
      "../../": 6341,
      "SP": 6342,
      "pecially": 6343,
      "Ġsem": 6344,
      "utions": 6345,
      "æ´ŀ": 6346,
      "(&": 6347,
      "Ġcolumn": 6348,
      "ledge": 6349,
      "é¾į": 6350,
      "ili": 6351,
      "è¿Ķ": 6352,
      "æ¤įçī©": 6353,
      "ä¿Ŀè¯ģ": 6354,
      "}.": 6355,
      "æİªæĸ½": 6356,
      "info": 6357,
      "ocr": 6358,
      "Ġlines": 6359,
      "uz": 6360,
      "Ġhttps": 6361,
      "èı²": 6362,
      "Group": 6363,
      "Ġlearn": 6364,
      "ãĢģâĢľ": 6365,
      "èĭĹ": 6366,
      "MA": 6367,
      "å¯Ĵ": 6368,
      "çĽ®çļĦ": 6369,
      "çĶ¨çļĦ": 6370,
      "åĬĽéĩı": 6371,
      "Ġincreased": 6372,
      "Ġmer": 6373,
      "Ġprofess": 6374,
      "itory": 6375,
      "gamma": 6376,
      "åħ±åĴĮ": 6377,
      "éģŃ": 6378,
      "lying": 6379,
      "ford": 6380,
      "Sup": 6381,
      "like": 6382,
      "Ġweight": 6383,
      "èº«ä½ĵ": 6384,
      "åĿı": 6385,
      "ĠNone": 6386,
      "-B": 6387,
      "åĪĨåĪ«": 6388,
      "ccording": 6389,
      "æ³ķå®ļä»£è¡¨äºº": 6390,
      "åĳĪ": 6391,
      "åĿ¦": 6392,
      "Ġquant": 6393,
      "æ²Ł": 6394,
      "vision": 6395,
      "Ġheight": 6396,
      "åįģäºĮ": 6397,
      "åħ¬å¼Ģ": 6398,
      "è°ĥæŁ¥": 6399,
      "è¿Ĳè¡Į": 6400,
      "åĪĨç±»": 6401,
      "æ³¡": 6402,
      "emplate": 6403,
      "Image": 6404,
      "clos": 6405,
      "mathbf": 6406,
      "Ġnamed": 6407,
      "ç¼ĸè¾ĳ": 6408,
      "Ġprefer": 6409,
      "Ġ($": 6410,
      "éº¼": 6411,
      "inding": 6412,
      "ä»£çĲĨ": 6413,
      "ening": 6414,
      "Ġsoftware": 6415,
      "æŃ£å¸¸": 6416,
      "Ġlate": 6417,
      "aves": 6418,
      "è§ĦèĮĥ": 6419,
      "ä¼ĺåĬ¿": 6420,
      "CP": 6421,
      "Ġprovides": 6422,
      "åı¦å¤ĸ": 6423,
      "Ġeffects": 6424,
      "adem": 6425,
      "èģ·": 6426,
      "Ġ});Ċ": 6427,
      "Status": 6428,
      "æľĢå¤§": 6429,
      "orem": 6430,
      "åĮĸåŃ¦": 6431,
      "åıªè¦ģ": 6432,
      "Ġword": 6433,
      "xim": 6434,
      "å§ĵ": 6435,
      "isf": 6436,
      "Ġcondition": 6437,
      "æķ°åŃĹ": 6438,
      "place": 6439,
      "éĿĴå¹´": 6440,
      "èµĦäº§": 6441,
      "å¯º": 6442,
      "Ġdifficult": 6443,
      "è¼ĥ": 6444,
      "[\"": 6445,
      "aker": 6446,
      "èĤ¡ä»½": 6447,
      "éĲµ": 6448,
      "æį·": 6449,
      "éĤ¦": 6450,
      "å¿ĺ": 6451,
      "Ġitem": 6452,
      "åºŁ": 6453,
      "Ġinflu": 6454,
      "change": 6455,
      "={": 6456,
      "å¥¹çļĦ": 6457,
      "éº¦": 6458,
      "rho": 6459,
      "çĽ®å½ķ": 6460,
      "æĪ´": 6461,
      "ĠHigh": 6462,
      "img": 6463,
      "ç»ıåİĨ": 6464,
      "istics": 6465,
      "Ġneeds": 6466,
      "Ġobtained": 6467,
      "query": 6468,
      "ç¢İ": 6469,
      "åĩĿ": 6470,
      "ociety": 6471,
      "Sp": 6472,
      "æ³¥": 6473,
      "ework": 6474,
      "åįģåĪĨ": 6475,
      "åĢį": 6476,
      "è°ĥæķ´": 6477,
      "ç¼ĵ": 6478,
      "Ġidea": 6479,
      "Ġtaking": 6480,
      "more": 6481,
      "Ġmodels": 6482,
      "éĤ£äºĽ": 6483,
      "ensive": 6484,
      "Ġmedia": 6485,
      "åŁ¹åħ»": 6486,
      "wise": 6487,
      "ç§¦": 6488,
      "Ġtrying": 6489,
      "BA": 6490,
      "ises": 6491,
      "Ġrot": 6492,
      "çĪ¸": 6493,
      "æī¶": 6494,
      "Ġthus": 6495,
      "My": 6496,
      "åħĴ": 6497,
      "Ġviol": 6498,
      "Ã¶": 6499,
      "Ġparty": 6500,
      "Ġlooked": 6501,
      "åĽĽå·Ŀ": 6502,
      "Ġdoor": 6503,
      "irtual": 6504,
      "hel": 6505,
      "body": 6506,
      "_IN": 6507,
      "light": 6508,
      "æĸĩçĮ®": 6509,
      "Ġannoun": 6510,
      "Ġge": 6511,
      "born": 6512,
      "ATE": 6513,
      "ĠEm": 6514,
      "å¿ĹæĦ¿": 6515,
      "Rec": 6516,
      "æĸĩåĲį": 6517,
      "ä¿ĥè¿Ľ": 6518,
      "Ġrunning": 6519,
      "è·¨": 6520,
      "Ġtrial": 6521,
      "ula": 6522,
      "ĠĠĠĠĠĠĠĠĠĠĠĠĠĠĠĠĠĠĠĠĠĠĠĠĠĠĠĠĠĠĠ": 6523,
      "å®īæİĴ": 6524,
      "åĮĸçļĦ": 6525,
      "è¶³çĲĥ": 6526,
      "\"]": 6527,
      "App": 6528,
      "Ġfriend": 6529,
      "Ġaverage": 6530,
      "æı´": 6531,
      "oman": 6532,
      "æīĵéĢł": 6533,
      "ename": 6534,
      "èŃī": 6535,
      "ÃĹ": 6536,
      "Ġoperation": 6537,
      "Override": 6538,
      "æī«": 6539,
      "çĦ¦": 6540,
      "è¿ĩç¨ĭä¸Ń": 6541,
      "acing": 6542,
      "Ġsex": 6543,
      "Ġhours": 6544,
      "çļĦä¸Ģä¸ª": 6545,
      "è©¦": 6546,
      "mark": 6547,
      "æĪĺçķ¥": 6548,
      "ying": 6549,
      "çĶľ": 6550,
      "ades": 6551,
      "Ġmoved": 6552,
      "Ġsound": 6553,
      "çģ°": 6554,
      "sole": 6555,
      "Ġarr": 6556,
      "Ġsus": 6557,
      "åĬŀæ³ķ": 6558,
      "lor": 6559,
      "\"><": 6560,
      "Ġgirl": 6561,
      "Ġbox": 6562,
      "Ġstates": 6563,
      "Ġwait": 6564,
      "åıĬåħ¶": 6565,
      "bre": 6566,
      "ä¸ĸçºª": 6567,
      "æĿľ": 6568,
      "UM": 6569,
      "Ġmut": 6570,
      "Ġlikely": 6571,
      "mitted": 6572,
      "Ġserver": 6573,
      "ĠVal": 6574,
      "ä¼Ł": 6575,
      "Ġjava": 6576,
      "Ġrelease": 6577,
      "ouch": 6578,
      "èŃ·": 6579,
      "æĭĶ": 6580,
      "char": 6581,
      "Ġsy": 6582,
      "anged": 6583,
      "æĮĤ": 6584,
      "æºª": 6585,
      "Â°": 6586,
      "Ġspect": 6587,
      "è¯Ħä»·": 6588,
      "ĠNe": 6589,
      ".r": 6590,
      "æĵĬ": 6591,
      "å¤§éĩı": 6592,
      "Ġcalcul": 6593,
      "æľĢä½³": 6594,
      "ĠAng": 6595,
      "ellow": 6596,
      "gy": 6597,
      "Ñĥ": 6598,
      "çĸ«æĥħ": 6599,
      "ĠAfr": 6600,
      "asc": 6601,
      "db": 6602,
      "achine": 6603,
      "Ġtypes": 6604,
      "å¤ļå°ĳ": 6605,
      "Sub": 6606,
      "inate": 6607,
      "gorith": 6608,
      ".ex": 6609,
      "Ġtele": 6610,
      "Property": 6611,
      "do": 6612,
      "å¦ĤæŃ¤": 6613,
      "æĬ½": 6614,
      "çįİ": 6615,
      "Ġï¼Į": 6616,
      "ĠSec": 6617,
      "æĹĭ": 6618,
      "å¿ĥçĲĨ": 6619,
      "çłĶåıĳ": 6620,
      "|\\": 6621,
      "Ġcho": 6622,
      "ĠTrans": 6623,
      "istry": 6624,
      "estern": 6625,
      "ĠLondon": 6626,
      "éĺ¶æ®µ": 6627,
      "æģĲ": 6628,
      "Ġgetting": 6629,
      "ns": 6630,
      "evice": 6631,
      "ä¸įåĪ°": 6632,
      "gment": 6633,
      "èĭ±è¯Ń": 6634,
      "ĠGeneral": 6635,
      "icles": 6636,
      "~\\": 6637,
      "Ġoutside": 6638,
      "æŃ·": 6639,
      "delta": 6640,
      "è¯ĳ": 6641,
      "Ġled": 6642,
      "avy": 6643,
      "())": 6644,
      "éĽ¢": 6645,
      "(new": 6646,
      "web": 6647,
      "åıĬæĹ¶": 6648,
      "æ¬Ĭ": 6649,
      "æĽ¿": 6650,
      "Ġminutes": 6651,
      "Ġdirection": 6652,
      "é³": 6653,
      "_H": 6654,
      "è¯´æĺİ": 6655,
      "å·¡": 6656,
      "ulated": 6657,
      "rip": 6658,
      "ä»¥åĲİ": 6659,
      "æ´ª": 6660,
      "Ġcard": 6661,
      "é»¨": 6662,
      "æŁĶ": 6663,
      "active": 6664,
      "è´·": 6665,
      "fort": 6666,
      "Ġtax": 6667,
      "ĠWilli": 6668,
      "actory": 6669,
      "Ġrat": 6670,
      "Ġimprove": 6671,
      "resh": 6672,
      "åķĨåĬ¡": 6673,
      "Ġlocation": 6674,
      "Ġtraining": 6675,
      "Ġbad": 6676,
      "pri": 6677,
      "éģį": 6678,
      "æ¯ıå¤©": 6679,
      "Ġforce": 6680,
      "éĢĤåĲĪ": 6681,
      "/l": 6682,
      "atively": 6683,
      "uster": 6684,
      ".x": 6685,
      "mt": 6686,
      "Ġfunctions": 6687,
      "Ġconstruct": 6688,
      "æĥ³è¦ģ": 6689,
      "Ġ()": 6690,
      "Ġchall": 6691,
      "BS": 6692,
      "Pr": 6693,
      "Ġround": 6694,
      "ä¼į": 6695,
      "Ġrespectively": 6696,
      "och": 6697,
      "Ġofficial": 6698,
      "Ġvill": 6699,
      "aled": 6700,
      "ĠRed": 6701,
      "ael": 6702,
      "å®ĮåĸĦ": 6703,
      "Gener": 6704,
      "è·Ŀç¦»": 6705,
      "åħ¬åı¸åĲįç§°": 6706,
      "åįĹçľģ": 6707,
      "Input": 6708,
      "UE": 6709,
      "Ġdemon": 6710,
      "open": 6711,
      "ptions": 6712,
      "éĹŃ": 6713,
      "Ġitself": 6714,
      "size": 6715,
      "ĠSome": 6716,
      "Ġpull": 6717,
      "Ġrights": 6718,
      "æĪĲæŀľ": 6719,
      "Ġgames": 6720,
      "room": 6721,
      "Ġ{ĊĊ": 6722,
      "-based": 6723,
      "Ġclient": 6724,
      "arning": 6725,
      "Ġcomplete": 6726,
      "Ġcontract": 6727,
      "Arg": 6728,
      "æĻĵ": 6729,
      "æľĢç»Ī": 6730,
      "Ġcause": 6731,
      "äº©": 6732,
      "èį·": 6733,
      "Ġareas": 6734,
      "Str": 6735,
      "Ġwor": 6736,
      "Ã¤": 6737,
      "Ġturned": 6738,
      "æ¶¨": 6739,
      "äºĴèģĶç½ĳ": 6740,
      "_data": 6741,
      "Ġdistrict": 6742,
      "Ġcorrect": 6743,
      "orge": 6744,
      "åĿ¡": 6745,
      "Ġsn": 6746,
      "font": 6747,
      "Ġtransfer": 6748,
      "åĨħå®¹ç®Ģä»ĭ": 6749,
      "æ¶Ĥ": 6750,
      "Ġbecom": 6751,
      "apping": 6752,
      "å½ĵæĹ¶": 6753,
      "ä¸įå°ĳ": 6754,
      "Comm": 6755,
      "ĠOR": 6756,
      "Ġbelieve": 6757,
      "Ġtemperature": 6758,
      "å³¶": 6759,
      "Ġparameters": 6760,
      "è®¡ç®Ĺæľº": 6761,
      "èĤĮ": 6762,
      "author": 6763,
      "åıĳè¡Į": 6764,
      "ocket": 6765,
      "åľŁåľ°": 6766,
      "Ġhor": 6767,
      "é¬¼": 6768,
      "æķ´ä¸ª": 6769,
      "Ġmount": 6770,
      "è´Ńä¹°": 6771,
      "rupt": 6772,
      "éĢļçŁ¥": 6773,
      "osis": 6774,
      "åĲĪåĲĮ": 6775,
      "theta": 6776,
      "ãĢĤãĢĤ": 6777,
      "Ġwoman": 6778,
      "åł¡": 6779,
      "ĠInter": 6780,
      "_w": 6781,
      "Ġlost": 6782,
      "èĴĤ": 6783,
      "è¡Ĺéģĵ": 6784,
      "æµĭè¯ķ": 6785,
      "çģ¾": 6786,
      "Date": 6787,
      "Ġknew": 6788,
      "éĶģ": 6789,
      "ilitary": 6790,
      "æĭ¼": 6791,
      "çº·": 6792,
      "SC": 6793,
      "Ġscreen": 6794,
      "Ġupdate": 6795,
      "ĠMon": 6796,
      "å¦»": 6797,
      "èģ²": 6798,
      "Ġquality": 6799,
      "ramework": 6800,
      "TP": 6801,
      "Ġgraph": 6802,
      "Â·Â·": 6803,
      "Ġexcept": 6804,
      "çĭĹ": 6805,
      "Ġformed": 6806,
      "/j": 6807,
      "èĥ½æºĲ": 6808,
      "å½»": 6809,
      "infty": 6810,
      "Ġpolitical": 6811,
      "çıį": 6812,
      "å¡«": 6813,
      "è¿ĲèĲ¥": 6814,
      "å®ŀè·µ": 6815,
      "Ġpressure": 6816,
      ">čĊ": 6817,
      "éģĵè·¯": 6818,
      "Ġste": 6819,
      "é©¾": 6820,
      "æķ°éĩı": 6821,
      "Ġsold": 6822,
      "æķ¢": 6823,
      "sup": 6824,
      "ç¬¦åĲĪ": 6825,
      "Ġautom": 6826,
      "æĪ¶": 6827,
      "ico": 6828,
      "ä»¥æĿ¥": 6829,
      "ĠBro": 6830,
      "erc": 6831,
      "æ²Ī": 6832,
      "Ġissues": 6833,
      "std": 6834,
      "è¦Ĩ": 6835,
      "Ġsomeone": 6836,
      "è£¡": 6837,
      "Ġstay": 6838,
      "è©ķ": 6839,
      "Ġoccur": 6840,
      "èĦĤ": 6841,
      "RA": 6842,
      "Ġfem": 6843,
      "rote": 6844,
      "format": 6845,
      "åĽłçĤº": 6846,
      "selves": 6847,
      "ĉĉĉĉĉĉ": 6848,
      "obile": 6849,
      "å£ģ": 6850,
      "çĻ»è®°": 6851,
      "çľŁæŃ£": 6852,
      "Box": 6853,
      "Ġillust": 6854,
      "Ġblood": 6855,
      "Ġforward": 6856,
      "aries": 6857,
      "-up": 6858,
      "Ġclub": 6859,
      "éİ": 6860,
      "à¸": 6861,
      "miss": 6862,
      "è¨±": 6863,
      "-P": 6864,
      "ptr": 6865,
      "Ġselected": 6866,
      "çĸ¾çĹħ": 6867,
      "Ġpersonal": 6868,
      "çĻ¼å±ķ": 6869,
      "ï¿½ï¿½": 6870,
      "eline": 6871,
      "Stream": 6872,
      "Ġproperties": 6873,
      "è´¦": 6874,
      "rl": 6875,
      "GB": 6876,
      "aur": 6877,
      "Ġgave": 6878,
      "å¾½": 6879,
      "ä½łä»¬": 6880,
      "Ap": 6881,
      "Ġwasn": 6882,
      "åŃķ": 6883,
      "å¨±ä¹Ĳ": 6884,
      "also": 6885,
      "æºĸ": 6886,
      "iments": 6887,
      "Ġens": 6888,
      "ç²Ĵ": 6889,
      "ih": 6890,
      "ran": 6891,
      "ç»ıèĲ¥èĮĥåĽ´åĮħæĭ¬": 6892,
      "bib": 6893,
      "æľºåĪ¶": 6894,
      "æİ¨åĬ¨": 6895,
      "Ġhot": 6896,
      "éĵº": 6897,
      "Ġsrc": 6898,
      "ĠTest": 6899,
      "æ¶Īæģ¯": 6900,
      "æ®ĸ": 6901,
      "Category": 6902,
      "Ġfiles": 6903,
      "ĠInternational": 6904,
      "ç§»åĬ¨": 6905,
      "ç¾Ĭ": 6906,
      "Ġconcent": 6907,
      "ä¸Ģå¹´": 6908,
      "Ġdistribution": 6909,
      "ç¬¬åħŃ": 6910,
      "inated": 6911,
      "è¿ĩåİ»": 6912,
      "Ġborder": 6913,
      "èĲ¥éĶĢ": 6914,
      "çĶŁçļĦ": 6915,
      "TE": 6916,
      "ä¸»æ¼Ķ": 6917,
      "åŁºåľ°": 6918,
      "md": 6919,
      "âĦ": 6920,
      "ivil": 6921,
      "æĻĭ": 6922,
      "çīĪæľ¬": 6923,
      "top": 6924,
      "Ġproblems": 6925,
      "After": 6926,
      "Ġactive": 6927,
      "æĤī": 6928,
      "icrosoft": 6929,
      "Ġestim": 6930,
      "Ġroad": 6931,
      "reet": 6932,
      "_V": 6933,
      "ä¸ºä»Ģä¹Ī": 6934,
      "acity": 6935,
      "ĠMich": 6936,
      "ĠIS": 6937,
      "æķ¬": 6938,
      "ç¨³å®ļ": 6939,
      "elling": 6940,
      "ä¸ªæľĪ": 6941,
      "Call": 6942,
      "Ġobserved": 6943,
      "sg": 6944,
      "åħ¬åı¸ç»ıèĲ¥èĮĥåĽ´åĮħæĭ¬": 6945,
      "éŀĭ": 6946,
      "å¿Ļ": 6947,
      "-Ċ": 6948,
      "çĽĲ": 6949,
      "_RE": 6950,
      "Ġcontinue": 6951,
      "Ġ((": 6952,
      "sm": 6953,
      "æĬµ": 6954,
      "ä¸ĭæĿ¥": 6955,
      "éĤĬ": 6956,
      "ãĢĤâĢľ": 6957,
      "å¹³åĿĩ": 6958,
      "rief": 6959,
      "æ®ĭ": 6960,
      "Ġfelt": 6961,
      "One": 6962,
      "åĬĽçļĦ": 6963,
      "-to": 6964,
      "çī¹æ®Ĭ": 6965,
      "å¤ļçļĦ": 6966,
      "fect": 6967,
      "ä»İäºĭ": 6968,
      "æĭľ": 6969,
      "Ġreturned": 6970,
      "ç´Ģ": 6971,
      "Ġeverything": 6972,
      "Ġbring": 6973,
      "FA": 6974,
      "MP": 6975,
      "Ġprec": 6976,
      "Ġhands": 6977,
      "Ġbroad": 6978,
      "lick": 6979,
      "Ġcatch": 6980,
      "Ġ\\\\Ċ": 6981,
      "Act": 6982,
      "Ġexact": 6983,
      "Ġassum": 6984,
      "èĪį": 6985,
      "Ġwebsite": 6986,
      "estions": 6987,
      "å¤§åŃ¸": 6988,
      "Ġespecially": 6989,
      "Ġcontr": 6990,
      "Ġlonger": 6991,
      "é¾Ħ": 6992,
      "(a": 6993,
      "Ġprobably": 6994,
      "èħĲ": 6995,
      "enced": 6996,
      "Ġconnection": 6997,
      "åħħåĪĨ": 6998,
      "åħĪè¿Ľ": 6999,
      "ython": 7000,
      "éĹ²": 7001,
      "çļĦéĹ®é¢ĺ": 7002,
      "æĭĵ": 7003,
      "ampionship": 7004,
      "ä½ľèĢħæĺ¯": 7005,
      "åľ¨çº¿": 7006,
      "èĭ±åĽ½": 7007,
      "icip": 7008,
      "uns": 7009,
      "è¦ª": 7010,
      "ç¡®å®ļ": 7011,
      "omen": 7012,
      "times": 7013,
      "ership": 7014,
      "tau": 7015,
      "âĺ": 7016,
      "client": 7017,
      "æ³ķåĽ½": 7018,
      "è´¸æĺĵ": 7019,
      "ç«ŀäºī": 7020,
      "åĪĳ": 7021,
      "Ġfollows": 7022,
      "Ġsqu": 7023,
      "ĠAc": 7024,
      "èĲ½å®ŀ": 7025,
      "éĩĮçļĦ": 7026,
      "å¹²éĥ¨": 7027,
      "ffer": 7028,
      "-year": 7029,
      "å¤ĸæĸĩåĲį": 7030,
      "Ġsample": 7031,
      "vey": 7032,
      "åĲİçļĦ": 7033,
      "gl": 7034,
      "å°ĳå¹´": 7035,
      "else": 7036,
      "CO": 7037,
      "ydro": 7038,
      "Line": 7039,
      "Ġdecision": 7040,
      "Ġinvolved": 7041,
      "å¤§ä¼ļ": 7042,
      "oring": 7043,
      "æľĢè¿ĳ": 7044,
      "åķ¦": 7045,
      "ä»ĸåĢĳ": 7046,
      "anger": 7047,
      "æķĮ": 7048,
      "éĸĭå§ĭ": 7049,
      "ĠAir": 7050,
      "åļ": 7051,
      "ĠFirst": 7052,
      "izer": 7053,
      "Ġmode": 7054,
      "å®¾": 7055,
      "Ġdepend": 7056,
      "rid": 7057,
      "Ġspeed": 7058,
      "Ġgas": 7059,
      "Ġeffic": 7060,
      "å¤§åĪ©": 7061,
      "çĦ¶èĢĮ": 7062,
      "uous": 7063,
      "æ±¤": 7064,
      "Ġweb": 7065,
      "Ġshowed": 7066,
      "åĬ³åĬ¨": 7067,
      "leep": 7068,
      "åŃĲçļĦ": 7069,
      "Ġborn": 7070,
      "Ġglobal": 7071,
      "aching": 7072,
      "ios": 7073,
      "æĹ¶æľŁ": 7074,
      "pg": 7075,
      "è¾ĸ": 7076,
      "Che": 7077,
      ".N": 7078,
      "æ±Łèĭı": 7079,
      "åĽłç´ł": 7080,
      "ĠAmerica": 7081,
      "æī¹åĩĨ": 7082,
      "åħ¬è·¯": 7083,
      "Ġess": 7084,
      "å¾®ä¿¡": 7085,
      "è¨Ńè¨Ī": 7086,
      "Ġdemonstr": 7087,
      "æ¨ª": 7088,
      "contain": 7089,
      "actions": 7090,
      "æĢ»éĥ¨åľ°çĤ¹": 7091,
      "Ġworked": 7092,
      "èĢħçļĦ": 7093,
      "space": 7094,
      "Ġsense": 7095,
      "Ġsoon": 7096,
      "Ġtim": 7097,
      "åºĶå½ĵ": 7098,
      "åĪĽä¸ļ": 7099,
      "åı¯æĺ¯": 7100,
      "èµŀ": 7101,
      "Ġproducts": 7102,
      "ĠMark": 7103,
      "oul": 7104,
      "TH": 7105,
      "æģĴ": 7106,
      "Builder": 7107,
      "Ġcomes": 7108,
      "ä¸»å¸Ń": 7109,
      "æĹģ": 7110,
      "èĹĿ": 7111,
      "raction": 7112,
      "Ġmag": 7113,
      "åıªèĥ½": 7114,
      "state": 7115,
      "ç©į": 7116,
      "%%": 7117,
      "Ġnecessary": 7118,
      "sembly": 7119,
      ".length": 7120,
      "ming": 7121,
      "ypes": 7122,
      "Ġfollowed": 7123,
      "ĠDon": 7124,
      "partial": 7125,
      "åįļå£«": 7126,
      "Ġserved": 7127,
      "Ġeffort": 7128,
      "ç¨ĭåº¦": 7129,
      "Ġstrateg": 7130,
      "Ġdeep": 7131,
      "èĩªæ²»": 7132,
      "çĮ«": 7133,
      "ĠPresident": 7134,
      "Ġdeveloped": 7135,
      "ĉĊ": 7136,
      "Refer": 7137,
      "æļĤ": 7138,
      "ä¸įçŁ¥éģĵ": 7139,
      "Ġcomponent": 7140,
      "é©Ĺ": 7141,
      "Fl": 7142,
      "å¼Ĺ": 7143,
      "å°±ä¼ļ": 7144,
      "Ġdied": 7145,
      "çħ¤": 7146,
      "Ġfootball": 7147,
      "éĩįå¤§": 7148,
      "Ð²": 7149,
      "çļĦåıĳå±ķ": 7150,
      "Ġax": 7151,
      "Ġwriting": 7152,
      "output": 7153,
      "_v": 7154,
      "éĩĳå±ŀ": 7155,
      "éĶħ": 7156,
      "å®ı": 7157,
      "Ġcred": 7158,
      "Ġmaintain": 7159,
      "Ġveh": 7160,
      "å¸¦æĿ¥": 7161,
      "ught": 7162,
      "èĸĦ": 7163,
      "å¨ĺ": 7164,
      "arily": 7165,
      "ospital": 7166,
      "Ġliving": 7167,
      "ship": 7168,
      "-pro": 7169,
      "Ġconstant": 7170,
      "åĳĺå·¥": 7171,
      "oz": 7172,
      "roy": 7173,
      "å¨ľ": 7174,
      "è¡ĮåĬ¨": 7175,
      "éĥİ": 7176,
      "Query": 7177,
      "otal": 7178,
      "åĬŀåħ¬å®¤": 7179,
      "adata": 7180,
      "conn": 7181,
      "è¾Ľ": 7182,
      "Ġfilter": 7183,
      "ĠFrench": 7184,
      "abs": 7185,
      "Ġflo": 7186,
      "iers": 7187,
      "éĴĪå¯¹": 7188,
      "éĩįåºĨ": 7189,
      "æ§ĭ": 7190,
      "èĢĹ": 7191,
      "æľºä¼ļ": 7192,
      "adding": 7193,
      "arr": 7194,
      "Ġdifference": 7195,
      "itter": 7196,
      "å¥³æĢ§": 7197,
      "olec": 7198,
      "${": 7199,
      "Ġdark": 7200,
      "éī´": 7201,
      ">username": 7202,
      "æĪĲçĤº": 7203,
      "å°ĺ": 7204,
      "æĬ±": 7205,
      "æ»¡è¶³": 7206,
      "Ġregular": 7207,
      "Ġsort": 7208,
      "åģ¶": 7209,
      "Ġrandom": 7210,
      "è¿Ĳè¾ĵ": 7211,
      "lation": 7212,
      "éĮĦ": 7213,
      "ado": 7214,
      "ĠJust": 7215,
      "çĭĤ": 7216,
      "ä¸ºä¸»": 7217,
      "å¿Ĩ": 7218,
      "æī¾åĪ°": 7219,
      "ĠSan": 7220,
      "Ġoffice": 7221,
      "é£İæł¼": 7222,
      "è®°å½ķ": 7223,
      "Ġstage": 7224,
      "è£Ĥ": 7225,
      "Ġwindow": 7226,
      "ĠPhil": 7227,
      "eful": 7228,
      "é¦ĸåħĪ": 7229,
      "æĪĲäºĨ": 7230,
      "åıĤæķ°": 7231,
      "åĩ¯": 7232,
      "Ġdirectly": 7233,
      "Ġimpact": 7234,
      "æľīäºº": 7235,
      "bon": 7236,
      "æģ¢": 7237,
      "æĸĩæĺİ": 7238,
      "server": 7239,
      "æ¦ľ": 7240,
      "ä¸»æĮģ": 7241,
      "ĠMor": 7242,
      "éĢĥ": 7243,
      "çļĦå·¥ä½ľ": 7244,
      "æ½ľ": 7245,
      "Ġexam": 7246,
      "æ·±åħ¥": 7247,
      "Ġcentury": 7248,
      "çĮª": 7249,
      "ä¸ĢçĤ¹": 7250,
      "aven": 7251,
      "å°ıåŃ¦": 7252,
      "çİ¯ä¿Ŀ": 7253,
      "Ġphase": 7254,
      "Ġslow": 7255,
      "Ġconnected": 7256,
      "è½´": 7257,
      "çİ»": 7258,
      "Ġdrug": 7259,
      "Ġboolean": 7260,
      "atives": 7261,
      "rought": 7262,
      "Util": 7263,
      "Ġonline": 7264,
      "oted": 7265,
      ">(": 7266,
      "å±ķç¤º": 7267,
      "åĮħè£ħ": 7268,
      "ä¹Ļ": 7269,
      "olic": 7270,
      "Ġproduced": 7271,
      "ĠHol": 7272,
      "Ġnatural": 7273,
      "Ġ\\Ċ": 7274,
      "Ġ;": 7275,
      "æľīéĻĲåħ¬åı¸äºİ": 7276,
      "ederal": 7277,
      "è¢ĭ": 7278,
      "å¿ł": 7279,
      "çĶ¨åĵģ": 7280,
      ".Get": 7281,
      "ugin": 7282,
      "âĨĴ": 7283,
      "é¤¨": 7284,
      "ä¸įéĶĻ": 7285,
      "æĺ¯ä¸Ģç§į": 7286,
      "-D": 7287,
      "èĥĮæĻ¯": 7288,
      "Us": 7289,
      "ka": 7290,
      "å¹¿å·ŀ": 7291,
      "Ġdecre": 7292,
      "ĠLeague": 7293,
      "Ġclin": 7294,
      "Ġten": 7295,
      "Ġembodiment": 7296,
      "len": 7297,
      "æīİ": 7298,
      "éłĲ": 7299,
      "Ġreve": 7300,
      "Ġcompl": 7301,
      "_pro": 7302,
      "ĠCr": 7303,
      "Ġchannel": 7304,
      "çĲĨå¿µ": 7305,
      "}(\\": 7306,
      "Ġstream": 7307,
      "éĻ¶": 7308,
      "ĠFrom": 7309,
      "fficient": 7310,
      "edd": 7311,
      "pected": 7312,
      "Ġshall": 7313,
      ".log": 7314,
      ")/": 7315,
      "è¿¹": 7316,
      "Ġpoly": 7317,
      "aign": 7318,
      "æĹ¥æĪĲç«ĭ": 7319,
      "æ¨ĵ": 7320,
      "Ġquite": 7321,
      "System": 7322,
      "åįĶ": 7323,
      "Ġconcern": 7324,
      "ç»ĺ": 7325,
      "èī²çļĦ": 7326,
      "Ġinterface": 7327,
      "åĢº": 7328,
      "æĺİæĺ¾": 7329,
      "ieved": 7330,
      "ĠChina": 7331,
      "Ġfloat": 7332,
      "éŃĤ": 7333,
      "oding": 7334,
      "âĶĢ": 7335,
      "Ġsatisf": 7336,
      "Ġcontains": 7337,
      "Ġextends": 7338,
      "Ġeasy": 7339,
      "éĩįæĸ°": 7340,
      "ç¢º": 7341,
      "raz": 7342,
      "Ġgrowth": 7343,
      "åħĦ": 7344,
      "å¤§å°ı": 7345,
      "Ġsimply": 7346,
      "Ġprimary": 7347,
      "éķ¿æľŁ": 7348,
      "Ġliter": 7349,
      "Ġnews": 7350,
      "known": 7351,
      "ä¸¥éĩį": 7352,
      "Ġ.Ċ": 7353,
      "Ġswitch": 7354,
      "Ġcam": 7355,
      "Ġdisease": 7356,
      "context": 7357,
      "è¶ĬæĿ¥": 7358,
      "Ġvert": 7359,
      "Ġtherefore": 7360,
      "å®¶çļĦ": 7361,
      "å¼ĢæĶ¾": 7362,
      "æĭħä»»": 7363,
      "ĠDistrict": 7364,
      "Ġrecent": 7365,
      "andid": 7366,
      "xx": 7367,
      "older": 7368,
      "eger": 7369,
      "pite": 7370,
      "agon": 7371,
      "level": 7372,
      "encies": 7373,
      "Ġuns": 7374,
      "æīĢå±ŀ": 7375,
      "åĬ¨çī©": 7376,
      "-r": 7377,
      "omega": 7378,
      "stract": 7379,
      "};Ċ": 7380,
      "Ġmix": 7381,
      "çº¹": 7382,
      "Ġprinc": 7383,
      "_R": 7384,
      "illing": 7385,
      "Ġfont": 7386,
      "Ġque": 7387,
      "Ġportion": 7388,
      "isher": 7389,
      "OC": 7390,
      "è¿ħ": 7391,
      "PP": 7392,
      "åĭ¤": 7393,
      "ä¿Ĺ": 7394,
      "ä¸Ĭå¸Ĥ": 7395,
      "ogen": 7396,
      "è·Į": 7397,
      "/or": 7398,
      "riter": 7399,
      "_A": 7400,
      "Ġapplied": 7401,
      "ä¾µ": 7402,
      "ican": 7403,
      "åĵªäºĽ": 7404,
      "çĴĥ": 7405,
      "Ġseems": 7406,
      "Ġfactor": 7407,
      "è¶ĬæĿ¥è¶Ĭ": 7408,
      "åĿĽ": 7409,
      "éĻįä½İ": 7410,
      "Ġestablished": 7411,
      "apped": 7412,
      "ä¼¸": 7413,
      "éĤĢ": 7414,
      "ky": 7415,
      "Button": 7416,
      "ç¥Ŀ": 7417,
      "ç¿Ĵ": 7418,
      "ä¾ĽåºĶ": 7419,
      "å°ıç»Ħ": 7420,
      "Pos": 7421,
      ")=": 7422,
      "Ġwhose": 7423,
      "Head": 7424,
      "èĢĥèĻĳ": 7425,
      "çļĦéĩįè¦ģ": 7426,
      "éĻ³": 7427,
      "æ¯Ķå¦Ĥ": 7428,
      "éĭ": 7429,
      "Ġstar": 7430,
      "ç¾¤ä¼Ĺ": 7431,
      "Ġ[]": 7432,
      "èĦī": 7433,
      "gn": 7434,
      "Ġ{#": 7435,
      "æµ®": 7436,
      "çľ¾": 7437,
      "ba": 7438,
      "ĠCoun": 7439,
      "Ġcompan": 7440,
      "Ġpolicy": 7441,
      "ĠData": 7442,
      "ç£ģ": 7443,
      "Ġleave": 7444,
      "åĨįæ¬¡": 7445,
      "----------------------------------------------------------------": 7446,
      "idden": 7447,
      "çĽ¸ä¿¡": 7448,
      "ĠUp": 7449,
      "Ġparts": 7450,
      "éĢļå¸¸": 7451,
      "é©»": 7452,
      "Ġuint": 7453,
      "ç»ıçĲĨ": 7454,
      "ç§Ĵ": 7455,
      "flow": 7456,
      "QL": 7457,
      "ements": 7458,
      "het": 7459,
      "End": 7460,
      "æĹ¥å¸¸": 7461,
      "é»İ": 7462,
      "çĭ¬ç«ĭ": 7463,
      "-L": 7464,
      "Ġfun": 7465,
      "lem": 7466,
      "NS": 7467,
      "Ġclosed": 7468,
      "vant": 7469,
      "_a": 7470,
      "Ġbed": 7471,
      "True": 7472,
      "é»ĥ": 7473,
      "Ġprotected": 7474,
      "Ġsequence": 7475,
      "]{}": 7476,
      "åİĭåĬĽ": 7477,
      "ç»Łè®¡": 7478,
      "Ġvisit": 7479,
      "Ġdefend": 7480,
      "Ġformat": 7481,
      "èĻ«": 7482,
      "Ġpret": 7483,
      "å¼ķèµ·": 7484,
      "æī£": 7485,
      "-re": 7486,
      "export": 7487,
      "åĩ¤": 7488,
      "Ġfactors": 7489,
      "éļ¨": 7490,
      "Ġimmedi": 7491,
      "äººæ°ĳæĶ¿åºľ": 7492,
      ":\"": 7493,
      "Ġadminist": 7494,
      "å°±åı¯ä»¥": 7495,
      "Ġful": 7496,
      "yr": 7497,
      "æ¯ıä¸ª": 7498,
      "ĠST": 7499,
      "Ġaltern": 7500,
      "la": 7501,
      "Ġclean": 7502,
      "Ġcompar": 7503,
      "è¿Ļæł·çļĦ": 7504,
      "æĶ¹åıĺ": 7505,
      "idget": 7506,
      "\\right": 7507,
      "Ġdetails": 7508,
      "Ġcapt": 7509,
      "!!": 7510,
      "ufact": 7511,
      "ç»´æĬ¤": 7512,
      "æģĭ": 7513,
      "itude": 7514,
      "Ġassess": 7515,
      "æŃ¤å¤ĸ": 7516,
      "æİ¨å¹¿": 7517,
      "ecause": 7518,
      "å®ĥçļĦ": 7519,
      "river": 7520,
      "æĪĲç»©": 7521,
      "Ġwatch": 7522,
      "aughter": 7523,
      "Ġcorresponding": 7524,
      "å®ħ": 7525,
      "æĪ²": 7526,
      "iece": 7527,
      "./": 7528,
      "ç´ħ": 7529,
      "èħ¾": 7530,
      "åĪĨå¸ĥ": 7531,
      "Ġhon": 7532,
      "èµı": 7533,
      "Ġcircuit": 7534,
      "æ»¿": 7535,
      "æķ´ä½ĵ": 7536,
      "è´¹çĶ¨": 7537,
      "å¼ĥ": 7538,
      "åįĹäº¬": 7539,
      "çĶµèĦĳ": 7540,
      "aches": 7541,
      "Ġball": 7542,
      "ĠAnt": 7543,
      "éĤ£ä¸ª": 7544,
      "anning": 7545,
      "alle": 7546,
      "Ġ===": 7547,
      "é«ĺçļĦ": 7548,
      "Ġcoming": 7549,
      "Ġconnect": 7550,
      "ç»ĵæĿŁ": 7551,
      "åįģä¸Ģ": 7552,
      "asons": 7553,
      "rial": 7554,
      "Ġvoice": 7555,
      "_list": 7556,
      "æ¬²": 7557,
      "ç¾½": 7558,
      "rav": 7559,
      "èº«ä»½": 7560,
      "itte": 7561,
      "Ġlimited": 7562,
      "åĽ¾çīĩ": 7563,
      "Ġ$$\\": 7564,
      "ç»Łä¸Ģ": 7565,
      "æ¬¢è¿İ": 7566,
      "Method": 7567,
      "æĪĲåĳĺ": 7568,
      "éģ¿åħį": 7569,
      "æĦıä¹ī": 7570,
      "ĠCO": 7571,
      "Ġshare": 7572,
      "Ġfast": 7573,
      ".js": 7574,
      "æ´»åĭķ": 7575,
      "ç»ķ": 7576,
      "åĩıå°ĳ": 7577,
      "Ġhope": 7578,
      "Ġhous": 7579,
      "Ġdistance": 7580,
      "^*": 7581,
      "å¹´æĿ¥": 7582,
      "Ġhy": 7583,
      "éĽĨä¸Ń": 7584,
      "EC": 7585,
      "çĲ´": 7586,
      "Ġstore": 7587,
      "Ġalthough": 7588,
      "å¾ª": 7589,
      "ĉm": 7590,
      "Ġurl": 7591,
      "ĠDem": 7592,
      "æĶ¯ä»ĺ": 7593,
      "izes": 7594,
      "éĥ½ä¼ļ": 7595,
      "Ġconv": 7596,
      "TER": 7597,
      "joy": 7598,
      "_size": 7599,
      "å½ĵçĦ¶": 7600,
      "ett": 7601,
      "åĲĪçĲĨ": 7602,
      "********************************": 7603,
      "Ġmanagement": 7604,
      "Ġdesigned": 7605,
      "è£ħä¿®": 7606,
      "js": 7607,
      "è¤": 7608,
      "ä¾ĭå¦Ĥ": 7609,
      "Ġdead": 7610,
      "ya": 7611,
      "ĠMat": 7612,
      "omas": 7613,
      "Ġusually": 7614,
      "è¿ģ": 7615,
      "Ġtakes": 7616,
      "***": 7617,
      "çļ®èĤ¤": 7618,
      "æĦıè§ģ": 7619,
      "ĠCollege": 7620,
      "éĽĻ": 7621,
      "Ġfeed": 7622,
      "ĠInc": 7623,
      "Instance": 7624,
      "irth": 7625,
      "åĺ´": 7626,
      "Ġcurrently": 7627,
      "ĠAssoci": 7628,
      "stall": 7629,
      "?#": 7630,
      "æĦıè¯Ĩ": 7631,
      "çĤ¸": 7632,
      "çľĭçľĭ": 7633,
      "nu": 7634,
      "Ġtravel": 7635,
      "ialog": 7636,
      "iforn": 7637,
      "kg": 7638,
      "ĠDi": 7639,
      "ĠDis": 7640,
      "Ġvict": 7641,
      "Ġdriv": 7642,
      "ä¼ģæ¥Ń": 7643,
      "omb": 7644,
      "è¯¸": 7645,
      "Ġmention": 7646,
      "){Ċ": 7647,
      "Ġanim": 7648,
      "acher": 7649,
      "Handler": 7650,
      "Ġavoid": 7651,
      "Ġmid": 7652,
      "Ġmus": 7653,
      "å±ħæ°ĳ": 7654,
      "Ġcareer": 7655,
      "Fig": 7656,
      "åĳĬè¯ī": 7657,
      "\").": 7658,
      "select": 7659,
      "IB": 7660,
      "åĪ¶å®ļ": 7661,
      "SON": 7662,
      "sq": 7663,
      "Ġsurv": 7664,
      "oto": 7665,
      "lier": 7666,
      "ĠUs": 7667,
      "ä¹Łåı¯ä»¥": 7668,
      "Ġrow": 7669,
      "å¯¿": 7670,
      "åĲįçļĦ": 7671,
      "æĿŃ": 7672,
      "åĩŃ": 7673,
      "PO": 7674,
      "Ġcomputer": 7675,
      "Start": 7676,
      "ĠCD": 7677,
      "èµ¶": 7678,
      "mathrm": 7679,
      "ulations": 7680,
      "SD": 7681,
      "è²¬": 7682,
      "ç»Ĩèĥŀ": 7683,
      "ĠPublic": 7684,
      "Ġprevent": 7685,
      "Source": 7686,
      "amily": 7687,
      "ä¸Ńåħ±": 7688,
      "éĢĴ": 7689,
      "æµĵ": 7690,
      "Ġpolice": 7691,
      "èµ«": 7692,
      "Ġchanged": 7693,
      "çĵ¶": 7694,
      "cel": 7695,
      "Ġpredict": 7696,
      "Ġnote": 7697,
      ".to": 7698,
      "uint": 7699,
      "otes": 7700,
      "åı¦ä¸Ģ": 7701,
      "æŁ±": 7702,
      "Ġopport": 7703,
      "è³ĩæĸĻ": 7704,
      "èµ¢": 7705,
      "å¦Ĩ": 7706,
      "å°¤åħ¶": 7707,
      "æ¸¬": 7708,
      "ĠStr": 7709,
      ".re": 7710,
      "å¸ķ": 7711,
      "(int": 7712,
      "ĠCenter": 7713,
      "Ġcry": 7714,
      "Ġpopular": 7715,
      "Content": 7716,
      "Ġapproxim": 7717,
      "Ġ},": 7718,
      "Ġallowed": 7719,
      "Token": 7720,
      "Ġpresident": 7721,
      "ĠItal": 7722,
      "Per": 7723,
      "ancial": 7724,
      "æº«": 7725,
      ".sh": 7726,
      "å®Ŀå®Ŀ": 7727,
      "ini": 7728,
      "âĢĿãĢģâĢľ": 7729,
      "ä¸¾è¡Į": 7730,
      "band": 7731,
      "................": 7732,
      "obert": 7733,
      "olor": 7734,
      "Ġboard": 7735,
      "çī©æµģ": 7736,
      "å¾Ĵ": 7737,
      "é£¾": 7738,
      "çĤ¼": 7739,
      "AME": 7740,
      "Ġauto": 7741,
      "æĩĤ": 7742,
      "æĺ¯çĶ±": 7743,
      "urt": 7744,
      "Ġhistor": 7745,
      "ĠThus": 7746,
      "çģŃ": 7747,
      "{{": 7748,
      "Ġroll": 7749,
      "Ġpict": 7750,
      "Ġprotein": 7751,
      "Dis": 7752,
      "Ġcollection": 7753,
      "éĿ©åĳ½": 7754,
      "ĠStud": 7755,
      "///": 7756,
      "Ġetc": 7757,
      "color": 7758,
      "æ¬£": 7759,
      "çĵľ": 7760,
      "Ġago": 7761,
      "åħļåĳĺ": 7762,
      "å¹¶ä¸į": 7763,
      "Ġsecurity": 7764,
      "åħ¬å¸ĥ": 7765,
      "Ġfight": 7766,
      "Ġmulti": 7767,
      "height": 7768,
      "åį³åı¯": 7769,
      "è´¢æĶ¿": 7770,
      "event": 7771,
      "Ġframe": 7772,
      "ä¾Ŀæ³ķ": 7773,
      "åĽ¢ä½ĵ": 7774,
      "éĩįè¦ģçļĦ": 7775,
      "_re": 7776,
      "çĲĨè§£": 7777,
[...]
